#version: 0.2
e n</w>
e r
i n
t h
c h
e n
e r</w>
u n
a n
t i
th e</w>
r e
i s
o n</w>
o n
a r
d i
o r
s t
i t
e s</w>
i n</w>
a l
r o
l i
c h</w>
e s
d er</w>
e l
s i
an d</w>
o f</w>
a t
a u
di e</w>
un d</w>
e in
t o</w>
o m
e d</w>
e i
a ti
in g</w>
d en</w>
u r
w i
a s</w>
i s</w>
b e
s ch
un g</w>
g e
a n</w>
a t</w>
d e
a s
a l</w>
o r</w>
r a
r i
g en</w>
o u
m en
l e
o l
v er
a b
u s
t en</w>
t e</w>
t er
l e</w>
i t</w>
d er
p ro
f ü
e c
i l
e h
T h
ch en</w>
a m
a c
v e</w>
i e</w>
t s</w>
ati on</w>
g e</w>
om m
t e
s p
z u</w>
d e</w>
n i
h r
f or</w>
f f
l y</w>
e t
n o
v on</w>
p o
th at</w>
u ro
e m
ch t</w>
v i
en t
l o
c on
uro p
s u
fü r</w>
w h
w er
f or
z u
c e</w>
n e
is t</w>
ti on</w>
men t</w>
l a
o p
d es</w>
e it
g en
E urop
c i
S t
ein e</w>
V er
ch e</w>
ati on
ar e</w>
m a
Th e</w>
g i
b er</w>
d en
b er
au f</w>
i ch</w>
b e</w>
ei t</w>
u l
h a
m it</w>
c o
it h</w>
el l
a h
un gen</w>
s e
si on</w>
s e</w>
w ith</w>
u t
i g
d as</w>
e m</w>
a d
I n
i m
a r</w>
d u
e x
c om
a f
r u
i m</w>
q u
t er</w>
s t</w>
omm is
di es
w e
R e
s er
ti on
i r
s h
de m</w>
c k
an d
s o
p or
wi r
it y</w>
un g
a g
A n
d a
ä n
s o</w>
l l</w>
is chen</w>
li ch</w>
z i
i e
m o
t a
w or
wer den</w>
b y</w>
e in</w>
ou r</w>
a p
r an
u m</w>
D ie</w>
th is</w>
at e</w>
as s</w>
n en</w>
m en</w>
l d</w>
er i
er e</w>
2 0
ommis sion</w>
li e
g es
s in
ni cht</w>
al l</w>
s en</w>
p ar
d ass</w>
m e
no t</w>
ch t
en t</w>
re s
m e</w>
wi ll</w>
S ie</w>
al s</w>
t ra
si ch</w>
t o
ung s
B e
ha ve</w>
u m
o u</w>
w e</w>
f i
S ch
sch af
h o
b u
P ro
k e</w>
f in
ou ld</w>
is t
al l
e b
au s
b es
E n
ro m</w>
in g
wh ich</w>
au ch</w>
U n
w as</w>
a ch</w>
a ch
t u
l u
d o
wi r</w>
ü ber</w>
f rom</w>
er s</w>
e an</w>
wir d</w>
ter n
y ou</w>
d s</w>
sin d</w>
e st
th er</w>
P ar
A u
ur e</w>
ein er</w>
for m
re i
' s</w>
Europ ean</w>
h al
h ab
r ä
p l
wi e</w>
g h
g t</w>
i er
w en
g r
h as</w>
a hr
t z
p er
ein en</w>
20 0
g an
t ed</w>
es s</w>
ab le</w>
A r
E r
D i
v or
st ell
s ti
com p
ä r
et z
I n</w>
s ol
e t</w>
ge b
li ti
ü r
e l</w>
ou t</w>
au s</w>
be i</w>
s a
ö n
g el
h at</w>
si den
li chen</w>
ar k
M it
st a
g ra
d ur
c an</w>
u r</w>
o o
A us
is che</w>
on e</w>
re c
E in
v er</w>
zu r</w>
m an
t en
o der</w>
g u
U ni
li ch
e u
w el
t h</w>
i c
er n</w>
al so</w>
m in
it s</w>
eh r</w>
men ts</w>
is e</w>
li c
be t
a k
at es</w>
un d
l in
m m
hab en</w>
. .
s en
k an
au f
te l</w>
E U</w>
H o
u s</w>
H er
i r</w>
e k
al ly</w>
at ed</w>
s el
a m</w>
ation s</w>
at en</w>
or e</w>
e p
es e</w>
du c
k ön
C ommission</w>
tion s</w>
Uni on</w>
si e</w>
e y</w>
us t</w>
l en</w>
po s
w a
an t</w>
co un
st en</w>
g ro
ti ve</w>
r it
Europ ä
C o
K ommission</w>
V or
t ri
re s</w>
w eit
o h
d ar
d ing</w>
m ö
st r
por t</w>
li che</w>
der n</w>
f ol
c es</w>
be it
v o
l ei
d is
w ur
v el
y st
o b
p e
1 9
ö r
t r
an ce</w>
ü n
t el
ti g
siden t</w>
er en</w>
er t</w>
w ar
en d</w>
A b
En t
a ge</w>
ein em</w>
si on
M a
ar y</w>
b o
in c
A l
k eit</w>
p u
f t</w>
e g
k en</w>
s it
p ri
ch te</w>
D as</w>
c al</w>
p re
te t</w>
m it
i hr
sch en</w>
P re
t s
em ber</w>
fü hr
es s
m ore</w>
o ff
g er
p res
b r
f er
n ah
t ei
ge h
ei r</w>
t ing</w>
es t</w>
an der
kön nen</w>
l an
th eir</w>
in ter
D er</w>
as s
z w
0 0</w>
u p</w>
un ser
schaf t</w>
ti es</w>
st ru
ver y</w>
h in
as t</w>
ch er
h i
p p
K on
v en</w>
k ing</w>
ü s
dur ch</w>
S p
c omm
t ur
it ä
F ra
as e</w>
m ark
n ach</w>
G es
po liti
p f
g o
ne u
w ould</w>
ar i
or d
B er
m er</w>
bu t</w>
ou s</w>
t ro
y our</w>
ü ber
omm en</w>
be en</w>
l ung</w>
I ch</w>
st eh
s on
v or</w>
zu m</w>
ation al</w>
eit en</w>
Th is</w>
Mit g
W e</w>
j e
sp ec
G r
c u
I t</w>
p r
z ei
i el
un ter
h eit</w>
por t
al i
dies e</w>
ci al</w>
ch n
o ther</w>
b i
s am
d ed</w>
a re
v ol
t re
e ar
f re
i c</w>
f ac
n e</w>
s ec
k t</w>
en s</w>
M r</w>
is i
gh t</w>
ge m
b il
wi ck
h er
k on
v en
d es
w ä
sh ould</w>
e ff
Mitg lie
g er</w>
er ung</w>
en s
kan n</w>
v es</w>
ac c
l and</w>
b en</w>
n ur</w>
dies er</w>
w n</w>
en ce</w>
b le</w>
al en</w>
f en</w>
us s</w>
j ec
st e</w>
ne w</w>
al e</w>
eh men</w>
a d</w>
l ä
b le
m on
men t
an y</w>
le g
un s</w>
G e
W ir</w>
m an</w>
F or
ol o
s yst
ü ck
t ran
b t</w>
re g
con c
h e</w>
ti gen</w>
t w
b en
no ch</w>
d ung</w>
us am
Co un
wor k</w>
f u
w ei
f o
or i
k l
k s</w>
P o
l t</w>
ti g</w>
ati ve</w>
B es
ges ch
d o</w>
m s</w>
vel op
in tern
st ri
ut z
eh r
ü tz
pro duc
E s</w>
or t</w>
da ß</w>
U m
m u
ci l</w>
E U
t n
i d</w>
da y</w>
Mitglie d
a v
op er
Europä ischen</w>
h ig
wur de</w>
s om
m ust</w>
Coun cil</w>
in n
ti me</w>
M ember</w>
th ey</w>
P rä
M in
f ahr
is h
er n
st at
ch er</w>
al is
ing s</w>
pu b
i h
ent r
el t</w>
g re
m üs
p le
St ates</w>
d an
ch an
.. .</w>
ein es</w>
f ra
f ir
g h</w>
c k</w>
en den</w>
on ly</w>
Mitglied sta
Au f
th ere</w>
ar d</w>
se in</w>
on der
ex p
c re
Re gi
b a
s etz
Z u
or s</w>
e w</w>
on om
in e</w>
su p
usam men
an t
in form
ation en</w>
t ung</w>
a ff
no w</w>
müs sen</w>
r on
r is
gra m
e urop
S o
wen n</w>
B eri
th ese</w>
ab out</w>
de velop
ab er</w>
h e
al le</w>
e ment</w>
c ul
Her r</w>
de t</w>
li ke</w>
y s</w>
Pre sident</w>
C omm
w s</w>
J ahr
k ommen</w>
re l
pro c
re gi
su b
itä t</w>
qu i
wi th
par ti
v ed</w>
ser vi
th o
p h
D e
Europ e</w>
ac e</w>
an n
sti tu
h and
m ehr</w>
con t
ti ge</w>
wa y</w>
el y</w>
li a
tri es</w>
dies em</w>
Par la
ti m
on s</w>
st än
th er
for e</w>
c y</w>
Mitgliedsta aten</w>
e d
t schaf
re d</w>
la r</w>
im mer</w>
F in
s ehr</w>
f e</w>
sch e</w>
un i
Un ter
Ho tel</w>
p a
ec onom
er g
mö g
C on
en g
f un
st ütz
an s</w>
coun tries</w>
M en
un ter</w>
I h
19 9
Ent wick
Ü ber
m p
lie ß
w ar</w>
ch ten</w>
im port
di es</w>
eh en</w>
en z
ne t</w>
man y</w>
at ing</w>
in to</w>
f a
su ch</w>
oo d</w>
mo st</w>
pro vi
ro u
ar beit
fin an
n o</w>
it e</w>
un der
op le</w>
wh o</w>
ä l
t or</w>
d r
sch ie
el le</w>
sol l
v ing</w>
au se</w>
inc lu
1 0</w>
pub li
n is
h el
wer e</w>
M e
d a</w>
pro pos
po si
di g
on g</w>
i f</w>
M o
europ ä
nah men</w>
so wie</w>
en de</w>
b is</w>
us e</w>
b ar
t y</w>
ihr e</w>
In ter
wi ch
B u
at eg
Par lia
de c
com e</w>
ag re
zw ischen</w>
C h
b eit</w>
for der
R i
we en</w>
l ar
en n
Ar beit
a st
bes onder
lo s
pe ople</w>
stell en</w>
b ei
d am
in i
e -
ab il
Parlia ment</w>
hal ten</w>
tion en</w>
bet ween</w>
is h</w>
si ble</w>
g lei
Z usammen
spec i
di ff
l as
do ch</w>
st and
th an</w>
N o
den en</w>
l au
ri e
I hr
i l</w>
ti mm
ap p
In form
b re
for m</w>
ell en</w>
S i
lo w
l än
stell t</w>
vo m</w>
j o
m is
or y</w>
ver n
s k
inform ation</w>
re port</w>
r au
ne ed</w>
am p
m at
W ir
de ut
ag a
an i
l at
c le
f e
ac k
ber eit
lic y</w>
J ah
wel l</w>
u p
f ten</w>
il li
ö ff
fi c
t ure</w>
sch ließ
wh at</w>
Europä ische</w>
an k</w>
G em
O r
b in
vi el
f ul
c ri
un ity</w>
W e
w oh
u res</w>
us s
etz t</w>
olo g
R at</w>
di rec
ü h
fir st</w>
Vor sch
K o
geb en</w>
stru c
c c
si g
al ity</w>
ß nahmen</w>
m y</w>
t es</w>
mö chte</w>
in t</w>
ab l
syst em</w>
in v
re sp
gan is
som e</w>
ta ke</w>
k te</w>
dies es</w>
ge t</w>
wh en</w>
EU -
g ung</w>
gi bt</w>
co ur
r ati
u e</w>
hal b</w>
sp e
em p
sam e</w>
b ie
L än
ä u
ma ke</w>
sh o
ge gen</w>
o m</w>
z eu
G er
sup port</w>
o ver</w>
Q u
Un tern
gro ß
import ant</w>
H au
ap pro
c ause</w>
w al
is ter</w>
or der</w>
Ber ei
in s
y e
et t
wä hr
th em</w>
st e
fu l</w>
P er
ä ch
er h
k om
s at
f t
h is</w>
wir k
res s</w>
publi c</w>
re as
ex c
in s</w>
k o
st ar
sp re
Prä sident</w>
ie l</w>
a il
n ec
ein g</w>
ge ment</w>
er k
Gem ein
me di
T o
sh i
wh ere</w>
le v
v is
resp on
en ti
po licy</w>
x t</w>
an g</w>
L i
y ear
w ür
ä tz
th rou
pro ble
M on
gem ein
n ung</w>
b ar</w>
ma de</w>
A m
ch ä
n at
m uss</w>
t ec
mark et</w>
sch ei
E x
is su
el l</w>
S u
isi on</w>
ol le
k eine</w>
ander en</w>
Fin an
k eiten</w>
s er</w>
z ah
ter s</w>
y p
Beri cht</w>
l er</w>
St a
ur r
ac k</w>
Europ a</w>
year s</w>
h eu
eb en</w>
z e</w>
cht s
gel e
e v
ig h
gh ts</w>
le tz
z en</w>
y ing</w>
ge w
n um
te chn
G en
h ere</w>
tw o</w>
p en
g ab
p la
wi e
u ation</w>
e ti
th ing</w>
B et
M ark
ommis sion
U S
be cause</w>
wur den</w>
econom ic</w>
ti v
il l
bes ser
I m</w>
we ise</w>
ho tel</w>
lo b
Parla ment</w>
lich keit</w>
Pro du
m i
tho se</w>
hi er</w>
ß er
ha d</w>
c an
be wer
fin den</w>
c ar
re ad
develop ment</w>
tion al</w>
h eit
M ar
o k
h um
ier ung</w>
i de
n t</w>
steh t</w>
g s</w>
f all
tr y</w>
h en</w>
lo c
i ge</w>
la ge</w>
R o
si ve</w>
S er
me as
w er</w>
su l
unser e</w>
sit e</w>
be g
f ri
a ir
oper ation</w>
we ver</w>
ti c
dam it</w>
em s</w>
am e</w>
lin e</w>
f ur
vi ew</w>
en n</w>
te e</w>
ac t</w>
j ust</w>
fahr en</w>
ent ly</w>
un der</w>
ä hr
c er
ö s
si s</w>
ma y</w>
h er</w>
Pro ble
ta in</w>
in di
f as
E R
Entwick lung</w>
B o
ye ar</w>
al le
T ei
G eb
mit tel
tran sp
un den</w>
eff ec
R ah
0 00</w>
l es</w>
j ek
gram me</w>
wor ld</w>
F ran
s or
g a
Ma ßnahmen</w>
Gr und
c ap
du stri
Ri cht
an ti
Di ese</w>
n ach
ci p
steh en</w>
B ür
ff en</w>
A k
dies en</w>
T e
b eing</w>
el e
öff ent
lo w</w>
I f</w>
as ed</w>
cont in
ri ght</w>
ä m
vi ron
ig n</w>
w är
2 0</w>
se e</w>
chä f
at er</w>
aus ge
n er</w>
is ten</w>
gen er
wir tschaf
d at
en st
par t</w>
Si cher
pro tec
l l
diff er
G ro
Jah r</w>
Ih nen</w>
en d
en en</w>
g es</w>
St r
e fore</w>
jec t</w>
so ur
us in
et y</w>
pl ace</w>
ch ar
are a</w>
br au
pos sible</w>
ier t</w>
neu e</w>
de mo
Untern ehmen</w>
throu gh</w>
s ch</w>
un kt</w>
en z</w>
k e
de l</w>
on en</w>
ation alen</w>
us ed</w>
F or</w>
om s</w>
k tion</w>
ch ts</w>
dan n</w>
si cher
20 1
L u
c urr
gen en</w>
W enn</w>
abil ity</w>
st and</w>
europä ischen</w>
ar ly</w>
ag es</w>
sion s</w>
m al</w>
je doch</w>
nah me</w>
i ce</w>
u n</w>
th en</w>
ä h
woh l</w>
ihr er</w>
M i
tran s
p ra
f f</w>
neu en</w>
l ungen</w>
der ung</w>
e ven</w>
ö ß
ta in
s m
be lie
comp le
so ci
besonder e</w>
with in</w>
w is
ar beit</w>
l and
lich er</w>
P ri
s eine</w>
ge gen
ou s
k re
servi ces</w>
politi cal</w>
h ar
au th
go vern
sp o
in st</w>
F ü
heu te</w>
R es
te gr
u tion</w>
t schaft</w>
S yst
im ple
lic k</w>
ho w</w>
0 0
intern ational</w>
av ail
g ood</w>
ier en</w>
ti c</w>
Z eit</w>
h ol
U N
it ed</w>
unter stütz
r en
ol l
tra g</w>
conc ern
D es
lo o
ou gh</w>
a u</w>
qu es
la g</w>
aga inst</w>
liti k</w>
st o
D ur
d ra
el n</w>
bereit s</w>
Fra u</w>
er rei
s c
A s</w>
der s</w>
pres ent
c ould</w>
th re
ul ation</w>
f est
n ational</w>
con si
s ur
ri ghts</w>
ö l
führ t</w>
st u
af ter</w>
Men schen</w>
se t</w>
stän di
bes ch
ad op
B il
bil ity</w>
b ur
p s</w>
p er</w>
i gen</w>
al o
read y</w>
an ge
I N
bo th</w>
g ri
k un
h än
kl är
er te</w>
ar ds</w>
be d
t ly</w>
ment al</w>
in stitu
N ach
en viron
at s
T a
5 0</w>
e f
v al
Inform ationen</w>
d ist
gra mm
coun try</w>
son dern</w>
ou t
we i</w>
ch ter
f le
meas ures</w>
i en</w>
unser er</w>
L e
ch es</w>
in gen</w>
men d
so cial</w>
shi p</w>
n te</w>
o s</w>
soll te</w>
sch n
ig n
el d</w>
im pro
or ganis
wirtschaf t
In tern
geh en</w>
dur ch
nis se</w>
no v
ation s
st au
Her r
ro om</w>
C ommission
.. ..
S e
emp lo
el ec
Jahr en</w>
Ver ein
stell ung</w>
num ber</w>
ru pp
W or
re qui
m er
tur al</w>
ti gt</w>
F re
d el
per son
f l
ne e
hab e</w>
Rah men</w>
es en</w>
i li
bu il
b el
at e
em ber
so zi
it tee</w>
st er</w>
lev el</w>
Ä n
ther efore</w>
en th
is p
o wn</w>
avail able</w>
g lob
K om
d re
las sen</w>
m ar
st s</w>
am en</w>
de b
an c
Ihr e</w>
si ch
is ch</w>
f ut
st an
A N
geh t</w>
ett bewer
sat z</w>
z wei</w>
qu ality</w>
ti k
b usin
w in
i ci
t or
M ö
C hin
pr in
lin ie</w>
ver k
Th ere</w>
g ar
chan ge</w>
on -
st är
erg y</w>
it al</w>
g ent
ti al</w>
f am
c or
do es</w>
finan cial</w>
ver schie
Min ister</w>
ß en</w>
olo gi
ou se</w>
w n
oh ne</w>
pri v
y ment</w>
ander e</w>
comp eti
h il
t ors</w>
setz ung</w>
z ur
E N
Commission er</w>
st re
si de</w>
all en</w>
fi ed</w>
sh al
sel b
T re
in ten
i z
en ts</w>
zi eh
z us
M it</w>
T ra
soll ten</w>
la gen</w>
N or
produc ts</w>
Berei ch</w>
ver s
Y ou</w>
is l
is cher</w>
Comm unity</w>
v e
B ar
gan g</w>
l ungs
führ en</w>
ur ity</w>
3 0</w>
fut ure</w>
cu lar</w>
for t
a gement</w>
S it
B r
in k</w>
p ec
ch en
Zusammen arbeit</w>
cle ar</w>
ges am
con di
i le</w>
le ist
to day</w>
T ran
H and
t om
qu e</w>
G o
with out</w>
ol d</w>
b al
m il
v ari
w ant</w>
L o
cht ung</w>
te m
gen ommen</w>
r e</w>
A d
ti z
ch ni
lie gt</w>
ma in</w>
mu ch</w>
k no
g o</w>
t al
is en</w>
da zu</w>
s on</w>
k es</w>
H in
servi ce</w>
ma chen</w>
h ist
proc ess</w>
C om
M an
e ts</w>
ent wick
con tro
F o
h eiten</w>
posi tion</w>
fre e</w>
s af
ant wor
ac tion</w>
sti ll</w>
Fra ge</w>
W eb
c ti
gr öß
ommis s
ge stellt</w>
d ru
l ast</w>
gram m</w>
sch ri
z eit</w>
ord in
bu d
c ase</w>
al ready</w>
Um wel
stau ran
C O
regi on
on d</w>
po int</w>
n is</w>
at te</w>
m ich</w>
Mö g
ins besondere</w>
er ten</w>
inclu ding</w>
fin d</w>
n ehmen</w>
C H
z el
parti cular</w>
d y</w>
de m
se ar
Re chts
par tn
o ver
i a</w>
ul es</w>
K in
c tion</w>
ad t</w>
m ul
est abl
f il
st al
il y</w>
b ri
c entr
propos al</w>
gan z</w>
p ur
differ ent</w>
schaf t
N e
or ity</w>
is ter
er gi
D a
be fore</w>
B eh
ish ed</w>
hig h
c a</w>
wa ys</w>
Di es
igh t</w>
al ität</w>
fi c</w>
tig ung</w>
an g
re spec
om e</w>
ur s</w>
in ing</w>
ra p
eb en
bes timm
dar auf</w>
l ess</w>
ut z</w>
Me di
k omm
bie tet</w>
y n
u al</w>
t sch
ah er</w>
es ti
in nen</w>
E in</w>
t t
s einer</w>
ori ties</w>
nec ess
si cht</w>
pro gramme</w>
ig er</w>
Unter stütz
B el
vi du
ur o</w>
ihr en</w>
est s</w>
dis c
fur ther</w>
ma j
L and
ach ie
E S
Pro jek
200 9</w>
ö h
sa id</w>
ri ch
is m</w>
cu st
r ü
ens ure</w>
el s</w>
L is
app lic
K ommiss
k tion
D o
Wir tschaf
k er</w>
are as</w>
al th</w>
us ti
In v
s s
m us</w>
p rä
b oo
ist r
W i
Aus sch
k ün
rit t</w>
S te
L age</w>
n et
fac t</w>
dat a</w>
T er
ep t</w>
a b</w>
W ettbewer
c ity</w>
ci es</w>
ta ken</w>
agre ement</w>
g l
c lo
Hau shal
D at
al er</w>
n ten</w>
p eri
te xt</w>
es sen
c all
gre at</w>
fall s</w>
f äl
low ing</w>
N i
j u
St and
B eit
sit uation</w>
b ased</w>
i es</w>
t wen
A T
G re
gen den</w>
Bes ch
sol l</w>
ord nung</w>
su cc
hum an</w>
l a</w>
heit s
I s
leg al</w>
c li
W elt</w>
D em
tra c
sel f</w>
Län der</w>
D is
ad di
ut es</w>
li g
ember s</w>
en ergy</w>
ti schen</w>
E N</w>
f es
acc ess</w>
ful ly</w>
ac coun
viel e</w>
t yp
st er
Th em
f er</w>
Z eit
co operation</w>
fin det</w>
ter n</w>
exp eri
Unterstütz ung</w>
vel y</w>
A R
y -
cour se</w>
c ent
b ro
eit e</w>
ck en</w>
wei l</w>
J u
sch en
da für</w>
s ehen</w>
sa y</w>
sp ra
h ei
ob jec
leg isl
pu t</w>
op e</w>
hel p</w>
wä h
re qu
iel e</w>
n ing</w>
G u
F un
Arbeit s
k a</w>
Än der
Bu t</w>
ass ung</w>
f ör
indi vidu
Jahr e</w>
o b</w>
Par tn
St ate</w>
comm on</w>
p as
H il
con su
be gr
t ä
Sch l
gro w
Comm ittee</w>
f ast</w>
j etzt</w>
ah l</w>
gr und</w>
por ts</w>
l er
al y
w o</w>
n eh
wie der</w>
i g</w>
k ten</w>
str ateg
g lich</w>
ma cht</w>
Di es</w>
provi de</w>
a z
hig h</w>
führ ung</w>
k ey</w>
ti eren</w>
ci tiz
Gen er
Richt linie</w>
De ut
zei ch
dur ing</w>
glei ch
lu g
1 0
ih r</w>
u b
Ver k
str eng
wor den</w>
ti vi
1 8
B ei
to o</w>
Am eri
la w</w>
f te</w>
W el
t -
ro oms</w>
ol len</w>
can not</w>
ein ige</w>
1 5</w>
sear ch</w>
vi e
E I
pro du
Th at</w>
sin ce</w>
Finan z
Ein e</w>
at ely</w>
a id</w>
tu r</w>
necess ary</w>
e ver
Ho wever</w>
h ä
amp le</w>
k ed</w>
belie ve</w>
wür de</w>
Per son
t rä
busin ess</w>
U r
P or
Fü r</w>
20 10</w>
S ec
1 .
e ach</w>
Ser vi
f tw
den n</w>
mög lich</w>
de fin
war d</w>
syst ems</w>
k now</w>
ftw are</w>
b an
geb o
L and</w>
inv est
me ans</w>
pr ü
alle m</w>
w ach
m illi
inc reas
Di rec
en cy</w>
Ar beit</w>
aff en</w>
in tegr
kun ft</w>
po in
selb st</w>
un ic
ges etzt</w>
tra g
z un
E R</w>
f ä
po li
p unkt</w>
gen d</w>
con tri
S a
d ungen</w>
k ur
stru k
s es</w>
en ces</w>
ver fü
on g
R O
tro l
ch il
Vorsch lag</w>
S o</w>
et ing</w>
in de
comp ani
r ules</w>
P al
F ol
lich keiten</w>
sec urity</w>
citiz ens</w>
bes t</w>
se l</w>
ge t
L eb
i zi
den ti
liti es</w>
D ar
n or
B a
pres ent</w>
ic al</w>
ex ample</w>
issu e</w>
Chin a</w>
som e
Ent schei
f rei
z ü
protec tion</w>
tra di
deb ate</w>
Z iel</w>
war en</w>
ven tion</w>
E -
olog y</w>
sch on</w>
li cht</w>
ini ti
br ingen</w>
wen dung</w>
th ink</w>
sm all</w>
en e</w>
y o
Län dern</w>
Be d
En ergi
los sen</w>
x i
st ra
si c</w>
cust om
b s
im p
er ungs
m ig
ein f
c l
de u
spe zi
ber ei
er fol
fo re
f r
li ed</w>
o d</w>
sti mm
gab en</w>
off ers</w>
ment ation</w>
tra gen</w>
währ end</w>
t le</w>
d ings</w>
1 2</w>
si mp
tra de</w>
spre ch
Herr n</w>
pro mo
sa gen</w>
St ra
thre e</w>
w es
ques tion</w>
ir e</w>
M illi
I S
wh ile</w>
demo c
St u
wich tig
ad v
geh ör
comm it
vi el</w>
d ate</w>
es sen</w>
ess es</w>
war ds</w>
N at
et er</w>
th ough</w>
as es</w>
L ös
res ol
in vol
ie t</w>
e k</w>
di re
de li
str y</w>
200 8</w>
ar t
rec ei
v öl
ti n</w>
tei l</w>
ar o
men te</w>
si bility</w>
ne xt</w>
a de</w>
vol l
b it
s eit</w>
m ir</w>
sam en</w>
sec tor</w>
der t</w>
er halten</w>
gen de</w>
op port
consi der
schaf ten</w>
sp ar
tei lung</w>
e very</w>
or ts</w>
itä ten</w>
w ollen</w>
z o
arbeit en</w>
n un</w>
me work</w>
L in
b in</w>
rit te</w>
cul tural</w>
ti ert</w>
ge führt</w>
si cht
t ru
l it
re co
er sten</w>
200 0</w>
E ben
A ll</w>
em e</w>
g le</w>
Er geb
M r
at s</w>
m a</w>
au en</w>
ß t</w>
all er</w>
l ong</w>
g ress</w>
zu g</w>
ad d
gu t</w>
ba sis</w>
r än
ch i
gi ve</w>
comp any</w>
Fra gen</w>
E uro
bie ten</w>
w an
2 .
N utz
re m</w>
W ie</w>
Tei l</w>
e ch
O n</w>
A ut
politi schen</w>
isi ons</w>
c olle
P ol
conc lu
man agement</w>
dre i</w>
F ir
Un ited</w>
Pro z
le a
z er
der en</w>
bei m</w>
i er</w>
sa m</w>
ma in
E C
d ri
fer ence</w>
ie der
s ed</w>
L a
al t</w>
ing ungen</w>
wh e
ß e</w>
For sch
te chni
b ack</w>
Bür ger</w>
op p
finan zi
er forder
m or
I T
unser en</w>
R ei
pl an
proble m</w>
milli on</w>
M u
pra cti
ol e</w>
ec t</w>
Inter net</w>
politi k</w>
N ach</w>
weit er</w>
tei l
g ar</w>
äm pf
gi ven</w>
proble ms</w>
Men schen
p i
Un d</w>
Be deut
s y
ur al</w>
in st
off er</w>
le it
b lei
Ver fü
O ur</w>
lar ge</w>
se qu
co m</w>
Sicher heit</w>
S in
nee ds</w>
m eine</w>
de st
om en</w>
inn er
ti ves</w>
Wirtschaf ts
Be i</w>
m ä
ge ther</w>
du stry</w>
p t
tel s</w>
ell schaft</w>
ei g
bet ter</w>
T ur
compani es</w>
in dustri
ol le</w>
adop ted</w>
reg ul
F l
r ise</w>
Di enst
Bedeut ung</w>
curr ent</w>
mo der
k ra
a k</w>
T o</w>
o l</w>
th ir
sour ces</w>
tre ten</w>
w w
f ar</w>
E r</w>
is ch
Mit tel
wor king</w>
us e
at y</w>
setz en</w>
condi tions</w>
r y</w>
in es</w>
st ate</w>
m ehr
produc tion</w>
us ing</w>
Th ese</w>
h ang</w>
e qui
weit ere</w>
pro gramm
ge währ
n a
gab e</w>
sch l
re sul
200 7</w>
W eit
su pp
be steht</w>
W ar
sch ein
g eri
ver wen
jec ts</w>
in nov
ur t</w>
issu es</w>
enz en</w>
ful l</w>
st ä
f ew</w>
K olle
hän gi
Th ey</w>
do wn</w>
c ed</w>
Re cht</w>
d ge</w>
al ten</w>
cht ungen</w>
F all</w>
In stitu
gele gt</w>
go ti
ar t</w>
pl ac
Ar tik
rei ch
cer tain</w>
Ar t</w>
Re gel
Parla ments</w>
loc ated</w>
as k</w>
et was</w>
Ver brau
re su
le gen</w>
t al</w>
U S</w>
J o
li fe</w>
emplo yment</w>
d -
r or
a in</w>
Syst em</w>
h ö
ne goti
tig keit</w>
v il
ever y
schließ lich</w>
ation ale</w>
letz ten</w>
Gro up</w>
M ad
G i
O p
kom men
O n
um fas
O b
sp ek
ma king</w>
ent schei
200 6</w>
K li
ro le</w>
gu ar
regi on</w>
da bei</w>
un de</w>
2 5</w>
s einen</w>
hist or
he alth</w>
dar f</w>
US A</w>
O ff
V ol
- S
re chte</w>
h au
F rei
u es</w>
A f
li ght</w>
EU R</w>
ti sche</w>
h ör
W in
de ta
to gether</w>
sp iel
J un
mat eri
th s</w>
G eri
nat ür
rau m</w>
Regi erung</w>
gro up</w>
n ess</w>
ter m</w>
A t</w>
p ack
dec ision</w>
Au f</w>
au tom
re duc
es se</w>
K re
sh all</w>
R om
z ep
den t</w>
lo s</w>
h ear
d i</w>
w o
t ali
Gemein schaft</w>
grow th</w>
c ris
d lichen</w>
aga in</w>
Z immer</w>
Ges und
au ßer
on ds</w>
D aten</w>
con nec
Be isp
parti cul
do m</w>
re cht
ver b
k ämpf
Str ateg
s s</w>
ho wever</w>
W ith</w>
Sta aten</w>
W er
at ten
er mög
fol lowing</w>
we b
si a</w>
so li
A fri
c ol
Leb ens
hal f</w>
re search</w>
wich tig</w>
ti l</w>
B en
zur ück
ati ves</w>
se ver
en nen</w>
w rit
ni fic
accoun t</w>
ü ck</w>
s ha
ch o
In dustri
ag t</w>
stauran t</w>
d ly</w>
contro l</w>
b lick</w>
W hat</w>
n äch
we gen</w>
air s</w>
R ates</w>
at er
t ungs
D ec
un tern
ous ly</w>
wel che</w>
whe ther</w>
pro v
contri bu
particul arly</w>
G ar
ap pe
fi zi
I tali
R u
G rupp
re al</w>
transp ort</w>
in dustry</w>
Ger many</w>
B i
t ar
speci fic</w>
vie ws</w>
R us
A S
t ation</w>
ec ted</w>
F r
wor k
a -
gen heit</w>
spo litik</w>
wh y</w>
contin ue</w>
komm t</w>
D eb
ben ef
di d</w>
lä s
aro und</w>
Te chn
zi al
en ter
lo cal</w>
parti cip
ter ms</w>
Pro gramm</w>
F ör
d ungs
K ar
1 1</w>
b l
wär e</w>
inc re
Gr ün
fra mework</w>
Ste u
mä ß
dr en</w>
g ed</w>
in a</w>
op en</w>
E m
zei gt</w>
tu n</w>
i ous</w>
Co urt</w>
W oh
An d</w>
y er</w>
vo te</w>
Änder ungs
Re g
sta in
E M
d aher</w>
A L
auth orities</w>
T ex
groß e</w>
x im
priv ate</w>
Kommiss ar</w>
hand elt</w>
a mend
j a</w>
bur g</w>
ver besser
I ni
ish ing</w>
mul ti
N amen</w>
y ed</w>
gen e</w>
kön nte</w>
is mus</w>
c t</w>
f ar
st en
W as</w>
ic ul
F lug
inner halb</w>
spre chen</w>
an zu
ac tivi
V i
Tre aty</w>
g ing</w>
twen di
sol u
Prä siden
intern ationalen</w>
po wer</w>
com es</w>
ati ven</w>
glei ch</w>
resu lt</w>
ou th</w>
lei ch
sec ond</w>
cul ture</w>
E le
ex ten
En de</w>
F rau
weit er
Verfü gung</w>
Ini ti
Po litik</w>
Deut sch
a gen
Artik el</w>
govern ment</w>
I C
Au ch</w>
fic ation</w>
or ig
e p</w>
Mög lichkeit</w>
d lich</w>
Dur ch
con f
c ally</w>
activi ties</w>
diff icul
F am
ex pres
F ahr
f y</w>
z usammen
so wohl</w>
den ce</w>
R ück
Proble m</w>
S k
be kan
land s</w>
R olle</w>
speci al</w>
H e
t ungen</w>
bud get</w>
no twendi
ent ru
ß en
d u</w>
Hau pt
com ing</w>
t in
ser v
m ers</w>
rei chen</w>
z ed</w>
be come</w>
groß en</w>
gu e</w>
es sion</w>
respec t</w>
4 0</w>
s ing</w>
go ing</w>
E uro</w>
v ement</w>
1 6
fes sion
Inv esti
. com</w>
n on-
schaf ts
min istr
glob al</w>
an other</w>
t a</w>
1 5
w eit</w>
gr und
da ys</w>
k ung</w>
en ing</w>
unterstütz en</w>
al ways</w>
po se</w>
c ro
w ater</w>
Hil fe</w>
ur y</w>
Bes chäf
sta y</w>
ch tet</w>
ex ist
ab hängi
f ris
ab o
tim es</w>
ha pp
g lau
gener al</w>
1 00</w>
des sen</w>
k in
L ie
St adt</w>
ein zel
g ern</w>
Or ganis
legisl ation</w>
h and</w>
z weit
sp r
1 7
pl at
200 5</w>
pro jects</w>
pro gress</w>
M ein
h ope</w>
th em
t lich</w>
wir tschaft</w>
sta at
Regi on</w>
lie gen</w>
O R
L an
ein mal</w>
maj or</w>
environ ment</w>
is ed</w>
b or
einf ach</w>
europä ische</w>
h atte</w>
de ci
ba u</w>
da von</w>
E S</w>
at or</w>
pla y</w>
gen ann
le ase</w>
w a</w>
por te
Zusammen hang</w>
al es</w>
in tro
k m</w>
chter stat
er klär
W ähr
i denti
Proble me</w>
are d</w>
t on</w>
t an
Ges chäf
pro ject</w>
I I</w>
ff t</w>
I r
z entr
f lo
guar an
tr on
We ise</w>
d ür
si eh
öffent lichen</w>
ran ge</w>
St ru
p at
zi el
or gan
t te</w>
is ts</w>
In di
fü l
erh in</w>
proc e
bre it
di en
lan g</w>
peri od</w>
leist ungen</w>
dar über</w>
gegen über</w>
ent sprech
ff e</w>
do cu
S T
il s</w>
Them a</w>
mu ß</w>
imple mentation</w>
eff ici
' t</w>
P ra
W o
w ahr
chil dren</w>
Zu kunft</w>
we isen</w>
c el
re present
rit eri
eh men
m b
cris is</w>
d ent
verschie denen</w>
wi de</w>
h an
zi ehen</w>
w omen</w>
to wards</w>
Mit tel</w>
ate gi
k ri
I O
dist ri
op ini
dig keit</w>
J an
n ed</w>
thir d</w>
200 4</w>
ach st
For tsch
lan g
ab ly</w>
s ei
sig nific
Um setzung</w>
af f</w>
K ul
incre ase</w>
vari ous</w>
C hr
ver ein
errei chen</w>
po ten
tur n</w>
200 3</w>
ta king</w>
f ood</w>
es pec
St ell
bet ri
gro und</w>
P l
l ed</w>
institu tions</w>
ei genen</w>
call ed</w>
n ationalen</w>
con s
s ure</w>
Ger man</w>
h r</w>
or en</w>
en jo
sicht lich</w>
A ber</w>
t able</w>
s ätz
en ten</w>
n utz
l s</w>
H ouse</w>
espec i
e ments</w>
ih nen</w>
19 8
co ver
Al s</w>
loc ation</w>
C ar
e duc
B al
S eite</w>
re gel
Kolle gen</w>
ex tre
P r
a ir</w>
k tionen</w>
Eben e</w>
är e</w>
fi eld</w>
k t
forder ungen</w>
c ing</w>
lä ge</w>
uss es</w>
Sch utz</w>
le isten</w>
cre ate</w>
ge l</w>
ent fer
o th
begr ü
m et
especi ally</w>
wh ole</w>
ei li
competi tion</w>
e qu
sel ves</w>
su ff
F u
experi ence</w>
besonder s</w>
fo und</w>
ver sch
schri ften</w>
clo se</w>
re it
T ag
region al</w>
lich es</w>
loo k</w>
sol len</w>
W hen</w>
stand ards</w>
as ser
I P</w>
A ff
l ab
for t</w>
Ver hand
econom y</w>
poli cies</w>
comm unic
wis sen</w>
effec tive</w>
E L
an it
ec k</w>
bei den</w>
be l</w>
zah l
zw ar</w>
k ein</w>
su chen</w>
auf ge
Wir tschaft</w>
ak tu
P lat
B an
An t
in stru
per f
200 1</w>
vi a</w>
i lities</w>
r ate</w>
au m</w>
to ur
Beri chterstat
wor ks</w>
en der</w>
ing t</w>
de f
politi sche</w>
appro ach</w>
Ver besser
r a</w>
n ei
J e
centr e</w>
provi ded</w>
or ding</w>
W achst
3 2</w>
form s</w>
inn en
I m
hig keit</w>
Ih r</w>
mit tel</w>
bet re
reco g
reg ard</w>
200 2</w>
all er
sch er</w>
o un
Direc tive</w>
We g</w>
Frau en</w>
re sources</w>
siden cy</w>
b ank</w>
ad ing</w>
W est
C entr
.... ....
ra cht</w>
d ou
fo c
Fam ili
w are</w>
zei tig</w>
mat ter</w>
o c
gra ph
sin gle</w>
l in</w>
ter min
aus sch
Mr s</w>
propos als</w>
ge f
sever al</w>
ag ri
po p
i ma
propos ed</w>
an aly
Verein ig
st off
M ehr
des ign
mark t</w>
a si
ück sich
e i</w>
g rei
sub ject</w>
K ap
lan gu
all es</w>
Deutsch land</w>
ein zu
ti v</w>
k rati
pl es</w>
N eu
usti ce</w>
T i
pro z
requi re
er ste</w>
le ben</w>
g il
wirtschaft lichen</w>
rap porte
e ven
entru m</w>
ut er</w>
d one</w>
K unden</w>
Fra ktion</w>
m el
ein ge
ell er</w>
Dem ok
p age</w>
ol s</w>
su stain
z eit
g in
f ung</w>
rei b
dru ck</w>
appro pri
pro fession
m erk
for ce</w>
Beisp iel</w>
Entwick lungs
b ut
saf ety</w>
kün f
li es</w>
ne ten</w>
ah n
at ten</w>
ent er</w>
o -
inter est</w>
ge ord
No v
m embers</w>
d om
z es</w>
ver fahren</w>
ges t</w>
D an
völ k
A t
f lu
me tho
w it
ch all
alis ierung</w>
re com
1 4
m ati
Web site</w>
fac e</w>
c a
w le
gr ün
concern ed</w>
K un
ck s</w>
st aff</w>
Sch ul
er ungen</w>
N ew</w>
D rit
ges ehen</w>
weit erhin</w>
all gem
strateg y</w>
her vor
an s
direc tive</w>
pl an</w>
con struc
M är
So zial
transp ar
le ast</w>
E A
Milli onen</w>
S ep
for ward</w>
prin cip
pri ce</w>
spra che</w>
an im
star t</w>
f all</w>
re cht</w>
environ mental</w>
ori es</w>
zieh ungen</w>
f el
inclu de</w>
A s
Servi ce</w>
sa ge</w>
viel en</w>
g än
be findet</w>
chn ung</w>
acc ep
mil it
um s</w>
U m</w>
Ver fahren</w>
it self</w>
Beh ör
p t</w>
berei ch</w>
st eu
li k
Strateg ie</w>
G ä
an der</w>
Geschäf ts
För derung</w>
lä u
k ul
mo dern</w>
ur ch</w>
M al
d on</w>
en te</w>
1 3</w>
mit t
0 .
er ing</w>
ed ure</w>
tic le</w>
hin aus</w>
vor schriften</w>
and s</w>
w ish</w>
F e
is cher
und ing</w>
wes ent
Sp iel
Pro gramme</w>
etz en</w>
Ver wal
ta ge</w>
exc ell
Finan zi
bar en</w>
s eit
Ch ar
wirk lich</w>
re li
S ek
mark ets</w>
gu i
import ance</w>
sion en</w>
Sch i
dr ück
fra ge</w>
tu res</w>
sch i
ra g</w>
Aff airs</w>
man u
be au
un ser</w>
per s
re ally</w>
In stru
fe at
techn ology</w>
m einer</w>
posi tive</w>
invest ment</w>
M il
le ar
struc ture</w>
B innen
is es</w>
- -
Sp ra
m ember</w>
us sel
eff orts</w>
ist ance</w>
auf en</w>
b lo
co sts</w>
Intern ational</w>
et wa</w>
Ihr er</w>
tra ining</w>
wen iger</w>
c am
den e</w>
n ame</w>
An gele
ch s</w>
Haushal ts
G el
N a
tion s
zeu g
1 2
at ors</w>
wie der
stimm ung</w>
Z iele</w>
uni ties</w>
autom ati
s weise</w>
Grund lage</w>
K an
W h
H ar
Zu gang</w>
Go vern
natür lich</w>
3 .
S eiten</w>
ah r</w>
ständi g</w>
Sta ats
o ften</w>
ad ministr
P res
1 4</w>
B au
per form
Ta g</w>
unterstütz t</w>
er war
re du
unter schie
op tim
c s</w>
me eting</w>
Lös ung</w>
d ort</w>
wirk ungen</w>
Sep tem
mon ey</w>
Demok rati
g ran
ag ed</w>
Partn er
sch affen</w>
on ce</w>
wor d</w>
ur ing</w>
bre ak
am oun
buil ding</w>
H e</w>
on n
ac ro
be deu
as se</w>
a im
rä ge</w>
produc t</w>
applic ation</w>
el ek
gil t</w>
ver sion</w>
el s
gesch lossen</w>
resul ts</w>
individu al</w>
t ten</w>
Septem ber</w>
kno wn</w>
er st</w>
p ol
soci ety</w>
Europ as</w>
Z ah
me chan
G leich
ei cht</w>
vor gesch
to ber</w>
resol ution</w>
Dat en
val ue</w>
sp ä
fra gen</w>
sup por
du e</w>
h in</w>
6 0</w>
Dies es</w>
pf li
opini on</w>
k ti
D ok
Al le</w>
Sit uation</w>
V iel
c los
entfer nt</w>
gr enz
un til</w>
W is
o ff</w>
S ü
1 8</w>
l ist</w>
aus zu
di o</w>
K omm
pf eh
dire kt</w>
fle xi
ge wi
Ver antwor
al low</w>
k u
up s</w>
stat t</w>
Is ra
ber i
B oo
d liche</w>
f ang</w>
at ory</w>
sit u
st ei
B ank</w>
Jan u
contin u
oo l</w>
n am
opport unity</w>
person al</w>
provi des</w>
Fran ce</w>
F il
E G
mö chten</w>
s ci
so ftware</w>
Wor ld</w>
on line</w>
in dem</w>
web site</w>
Umwel t
P ak
B em
Ver tre
on es</w>
N o</w>
E C</w>
aff ung</w>
enn tn
en h
Produ kte</w>
re form</w>
ra ft</w>
am ong</w>
B .</w>
si dent
te x
Por tu
di c
Stru k
a way</w>
tei len</w>
G ra
. .</w>
par t
us sion</w>
Er fahr
impro ve</w>
pre v
Mark t</w>
en ed</w>
R A
an y
some thing</w>
n u
A n</w>
intro duc
b zw
j en
le t</w>
addi tion</w>
bzw .</w>
re lev
g s
C or
au t</w>
2 4</w>
h under
rapporte ur</w>
ier ten</w>
der zeit</w>
Ge gen
m ate</w>
o d
o cc
imple men
par ties</w>
ari an</w>
di t</w>
us er</w>
f ig
Bei hil
rei ben</w>
gu te</w>
An wendung</w>
kämpf ung</w>
z eh
ac tions</w>
Pri v
regi ons</w>
ges i
usam men</w>
K ol
p ho
mo bi
dar an</w>
F ern
zu stellen</w>
T H
le men</w>
in ed</w>
pr o</w>
p rec
gemein samen</w>
o se</w>
vol l</w>
wel come</w>
Le ist
ro ad</w>
ra cy</w>
S pe
ü l
ger e
hal tung</w>
äch lich</w>
s em
Z us
rati c</w>
z ung</w>
J ap
c all</w>
wn lo
Person en</w>
Ihr en</w>
Wettbewer bs
ad s</w>
ge macht</w>
f -
umfas sen
excell ent</w>
ac tu
respon sible</w>
mon ths</w>
e as
forder t</w>
ob lig
r ation</w>
programm es</w>
vers ity</w>
ta ins</w>
trol le</w>
itä ts
vi ol
respon sibility</w>
on ger</w>
P f
1 6</w>
Regi onen</w>
Mein ung</w>
d ro
Dies er</w>
to wn</w>
ri cht</w>
is ti
custom ers</w>
gem ä
tei le</w>
l ing</w>
lo ws</w>
Be zug</w>
F ischer
er a</w>
In tegr
hal t</w>
pro per
y et</w>
exc lu
eben falls</w>
Ver ordnung</w>
ä lt</w>
techni cal</w>
gent lemen</w>
b on</w>
zus ätz
poin ts</w>
S ol
H ier</w>
St abil
M ob
zah l</w>
as sen</w>
reg ar
H an
alo g</w>
For m</w>
Kon ta
es i
ris k</w>
ehr s
Ho tels</w>
Berei chen</w>
educ ation</w>
L eben</w>
z a</w>
Aus wirkungen</w>
f ron
negoti ations</w>
Dok u
at t
4 -
cri min
lit tle</w>
Ver trag</w>
orig in
agre e</w>
zeich net</w>
w ing</w>
rec ent</w>
v ision</w>
ra ther</w>
ri chtung</w>
bin dung</w>
Re chte</w>
ck t</w>
A C
lin ien</w>
ges agt</w>
geb racht</w>
199 9</w>
uni k
ex am
con trac
th ings</w>
Com p
h y
princip le</w>
ag o</w>
er neu
le t
arbeit et</w>
Ab kommen</w>
be isp
ber u
ic s</w>
ha ving</w>
je der</w>
S el
D en
ta x</w>
ih rem</w>
ch it
Be völk
o s
Fr üh
ein igen</w>
require ments</w>
dar in</w>
A ir
R a
A gen
fun da
Ent schließ
Nov ember</w>
olog ie</w>
Ö ff
S h
sol ution</w>
p un
fam ily</w>
Lu x
S y
wor t</w>
rel ated</w>
län dern</w>
h ome</w>
fer enz</w>
Z w
dan ken</w>
alo gue</w>
U hr</w>
to tal</w>
Behör den</w>
mon it
des ign</w>
fä higkeit</w>
or d</w>
Wel t
requi red</w>
Arbeit sp
o k</w>
w ell
Un ser
qu ali
av our</w>
me isten</w>
li g</w>
li eren</w>
ar s</w>
eff izi
ac tive</w>
äm lich</w>
h im</w>
e ver</w>
intern al</w>
O L
K ö
lin es</w>
proc edure</w>
y a</w>
u te</w>
gro ups</w>
m om
m ight</w>
am eri
n ämlich</w>
Z i
L eit
chan ges</w>
appropri ate</w>
Au ßen
D a</w>
en ds</w>
oo ds</w>
unser em</w>
th e
Er klär
Des halb</w>
F est
Verbesser ung</w>
untern ehmen</w>
wich tige</w>
vi l</w>
1 .</w>
Qu alität</w>
auf grund</w>
abo ve</w>
ne te</w>
w ün
K ri
M at
te te</w>
ste p</w>
c ases</w>
Ko sten</w>
Bür ger
Er fol
demo krati
cont act</w>
st ed</w>
Vorsch ri
k o</w>
ani a</w>
Bes timm
den ken</w>
hum anit
b are</w>
add ress</w>
Ab geord
Ver pfli
steh enden</w>
en cour
an ts</w>
ma ch
sozi alen</w>
Af ter</w>
D el
un ver
beisp iel
so gar</w>
to p</w>
Bel gi
gre ater</w>
con sul
cont ent</w>
1 3
B ri
näch sten</w>
po wer
bit te</w>
indi c
neh mer</w>
Gr und</w>
mo sp
ge geben</w>
car ri
z usammen</w>
T V</w>
ran k
mm t</w>
reg ulation</w>
li mit
succ ess
vi er</w>
Kli ma
or ing</w>
essen tial</w>
E l
se k
Verhand lungen</w>
re ach
fre e
sp ru
nach hal
at h</w>
Kin der</w>
c ame</w>
on a</w>
ari a</w>
Vorsch läge</w>
manu fac
K l
Hin blick</w>
de al</w>
2 9
exist ing</w>
beg inn
nat ure</w>
v al</w>
o p</w>
n ation
e th
tei lt</w>
P la
Pro gramm
se i</w>
n er
Min ister
y ers</w>
Rei he</w>
Entschei dung</w>
Gro ß
develop ing</w>
an stal
f ern</w>
techn ologi
fun c
curr ently</w>
Sicher heits
ci r
mittel n</w>
nee ded</w>
Th er
s einem</w>
achie ve</w>
pers ön
publi k</w>
H ei
zei gen</w>
pro gra
Mad am</w>
In nov
K ü
M embers</w>
u ten</w>
ti vely</w>
r ing
än der
in -
M or
p ass
li gen</w>
De velop
Bes u
Au ff
th ank</w>
Präsiden tin</w>
A pri
li ber
anc ed</w>
O ne</w>
Tei l
tion ed</w>
Mark t
c o</w>
sa che</w>
ma ßnahmen</w>
Po liti
j e</w>
b ed</w>
qu ite</w>
ma kes</w>
An gebo
inde pen
eri es</w>
br ing</w>
Pre sidency</w>
vor sch
atten tion</w>
tiv ity</w>
ur en</w>
fun ds</w>
P -
dür fen</w>
W ah
T ür
imp act</w>
difficul t</w>
sho w</w>
setz t</w>
Bed ingungen</w>
g rupp
sit es</w>
be half</w>
amend ments</w>
S lo
D am
ni mmt</w>
betri fft</w>
comple te</w>
schl uss</w>
er weise</w>
Su b
v a</w>
bes ser</w>
H al
ac i
m ed</w>
st ing</w>
oth ers</w>
wür den</w>
ver fol
ih m</w>
bo dy</w>
Aus sprache</w>
ist an</w>
D E</w>
si tion</w>
st ates</w>
C an
Vorschri ften</w>
stand ing</w>
as pec
Au ßer
B ul
p tion</w>
F rie
Gener al</w>
ques tions</w>
fi le</w>
it z
Dienst leistungen</w>
W ieder
c al
gemein same</w>
Apri l</w>
ün g
5 -
net work</w>
ven ess</w>
gen heiten</w>
T ro
K ur
r ates</w>
in o</w>
char ac
Her aus
p ic
fü n
an gem
ho ch
tra v
Ges ellschaft</w>
ad a</w>
ber ücksich
W il
Inter esse</w>
sol che</w>
ati s
objec tives</w>
D ru
en sive</w>
sti m
li ve</w>
je wei
län der</w>
gre ich</w>
mit ted</w>
ag ing</w>
Geb iet</w>
s et
Rus sia</w>
ta x
f avour</w>
low ed</w>
f eh
ges timm
in e
Al l
brau chen</w>
G ol
Au stri
y l
nutz en</w>
str ong</w>
1 ,
H aus</w>
gen d
direc t</w>
reas on</w>
schn it
deut lich</w>
Be ziehungen</w>
s ab
d d
con text</w>
sp ort</w>
ell eicht</w>
ih n</w>
nat ural</w>
z immer</w>
rei che</w>
pri ces</w>
Z iel
So ftware</w>
con om
for men</w>
wis sen
develop ed</w>
op s</w>
f li
A spek
concern ing</w>
her r
direc tly</w>
ser ious</w>
su cht</w>
T at
su ch
ist ri
is tet</w>
sustain able</w>
str ategi
k einen</w>
erforder lich</w>
8 0</w>
re mo
d au
cer tain
H inter
f our</w>
und ed</w>
ti cal</w>
pos ed</w>
re ma
ti ven</w>
E conom
wor ds</w>
ne g
S al
mis sion</w>
Pro to
D u
si cher</w>
ob s</w>
Dur ch</w>
do ws</w>
An sicht</w>
H ö
erh eb
H a
R isi
wel t
kön nten</w>
wer t</w>
z äh
c are</w>
Unser e</w>
N ä
Grupp e</w>
ver s</w>
po ol</w>
an trag</w>
sh ort</w>
ap er</w>
zw ei
ch ed</w>
ein ander</w>
ani en</w>
min im
min utes</w>
pro gramm</w>
gehör t</w>
zü glich</w>
lu b</w>
h u
yo ung</w>
bo ur
be tra
k ar
Außer dem</w>
cap ital</w>
arbeit ung</w>
su g
1 7</w>
ta kes</w>
si ert</w>
L ei
Steu er
errei cht</w>
Ar ticle</w>
Menschen rechte</w>
bil dung</w>
I M
ier te</w>
re t
invol ved</w>
har mon
re fer
ass istance</w>
Fortsch ritte</w>
il ed</w>
la dies</w>
Ber lin</w>
beispiel sweise</w>
bedeu tet</w>
N etz
Ges am
signific ant</w>
inter est
beau ti
co ordin
o ur
ter ror
e di
En gl
P ub
concern s</w>
fort able</w>
fre und
wle dge</w>
Or t</w>
lä tz
agre ed</w>
us es</w>
le ft</w>
enjo y</w>
gen au</w>
fü r
W T
F ar
To ur
initi ative</w>
kom ple
me et</w>
addi tional</w>
hel d</w>
- B
P unkt</w>
p an
kin d</w>
sch ul
wirtschaft liche</w>
h ier
ach ten</w>
Kö ni
zo gen</w>
ec e</w>
F äl
ou ght</w>
p ast</w>
tu rel
ä t</w>
tern al</w>
rel ations</w>
inter ests</w>
äch st</w>
ün sti
pro chen</w>
I ra
tor en</w>
P un
P i
k lar</w>
Ges etz
st ens</w>
ar ti
ing ly</w>
hal te</w>
Ben utz
b ark
pro mis
Ein zel
E i
h ouse</w>
work ers</w>
bil li
re st</w>
li c</w>
it ing</w>
U kra
Inform ation</w>
Ho ch
lo k
er fül
Di en
g al</w>
pub l
ben ö
st -
k s
sh are</w>
re stri
pre p
end ly</w>
de termin
struk tur
ge ts</w>
Mög lichkeiten</w>
Beit rag</w>
Er weit
as soci
pres s</w>
v o</w>
des halb</w>
P h
je den</w>
l ong
is ation</w>
m ing</w>
ac ts</w>
Be wer
19 7
de pen
ger ade</w>
gesam t</w>
tig er</w>
vi ous</w>
ic ro
co -
R uss
them selves</w>
F ur
pe ace</w>
f an
integr ation</w>
ati sti
b s</w>
I S</w>
re la
be hin
Ab stimmung</w>
Pri or
simp ly</w>
cli mate</w>
ma il</w>
cle arly</w>
e li
centr al</w>
ant ly</w>
mo un
establ ished</w>
C as
b ish
St ad
acro ss</w>
st ation</w>
dec isions</w>
kon kre
e asi
h äl
S ti
is se</w>
is ches</w>
se a</w>
sh e</w>
eas y</w>
I T</w>
gesi chts</w>
Re public</w>
Mu si
F ren
ass ess
ma xim
be sten</w>
aller dings</w>
gesam ten</w>
al tern
geb ung</w>
Forsch ung</w>
ei ther</w>
Develop ment</w>
I tal
re -
sch utz
A cc
H ol
l ö
blei ben</w>
yn am
we der</w>
sch wi
alis ation</w>
P lan
R at
W ei
Ges chi
n s</w>
pp ed</w>
e ch</w>
w .
r o</w>
medi a</w>
Vereinig ten</w>
nis sen</w>
ex per
ass er</w>
com bin
t liche</w>
kre ich</w>
einzel nen</w>
poten tial</w>
gestimm t</w>
m al
an a</w>
Geb ie
ro w</w>
qu o
a vo
vel s</w>
ti veness</w>
ti s
Au s</w>
vis it</w>
free dom</w>
al ong</w>
solu tions</w>
Jahr hunder
Kom p
ni chts</w>
ges etz
Initi ative</w>
agre ements</w>
ap art
T ä
Vor sit
objec tive</w>
tain ed</w>
ple ase</w>
E D
ec k
tre at
to ok</w>
m ut
Dis k
lo se</w>
di gen</w>
S or
seit s</w>
re fle
up on</w>
b an</w>
ver stän
m us
vo ted</w>
l onger</w>
se en</w>
d ar</w>
ber eit</w>
P a
ko sten
l en
fun ktion
lo t</w>
A p
stauran ts</w>
ein zi
Fran kreich</w>
requ est</w>
r .</w>
Institu tionen</w>
glau be</w>
gr at
vor zu
th us</w>
o w</w>
bu s</w>
Geri cht
Z u</w>
da m</w>
em is
Struk tur
ni en</w>
V on</w>
wer de</w>
c op
3 0
ac y</w>
Demokrati e</w>
be k
P e
F eh
stand ard</w>
B ro
d on
ri chtungen</w>
partn ers</w>
ver stär
intern ationale</w>
f onds</w>
ww w.
Mitglie der</w>
b order</w>
sh of</w>
abl es</w>
a im</w>
Ergeb nisse</w>
ac qu
Verantwor tung</w>
democ ratic</w>
stan den</w>
B ra
comm er
tw eit</w>
Sch affung</w>
ä d
c aus
democ racy</w>
loo king</w>
notwendi g</w>
kom p
för dern</w>
per son</w>
de mon
schließ en</w>
un a</w>
fr üh
ständi gen</w>
se par
Fren ch</w>
et te</w>
mo d
en -
ho li
b ra
Ital y</w>
re ly</w>
re h
K at
eu te</w>
ser ve</w>
u t</w>
beauti ful</w>
communic ation</w>
f est</w>
L a</w>
Umwel t</w>
P rü
fam ili
m ern</w>
Inform ations
dr in
com b
c la
an o</w>
D aher</w>
eh mig
I de
ne l</w>
20 0</w>
Govern ment</w>
5 00</w>
verwen det</w>
t t</w>
i an</w>
N et
Re publik</w>
fac ilities</w>
ear ly</w>
co st</w>
5 .
le b
is ing</w>
1 9</w>
N ieder
weit eren</w>
Re staurant</w>
enn ung</w>
m es</w>
inst all
effec t</w>
j obs</w>
gh out</w>
even ts</w>
c ar</w>
te ten</w>
ide al</w>
fall en</w>
Besch l
fin al</w>
Richt ung</w>
z one</w>
hear t</w>
m as
app ly</w>
äu ßer
prü fen</w>
Investi tionen</w>
ak zep
langu age</w>
sp ace</w>
S an
ev ent</w>
schn ell</w>
bed ingungen</w>
funda mental</w>
K ommission
J ustice</w>
2 1</w>
Verbrau cher</w>
W asser
verk ehr</w>
Be kämpfung</w>
Mo d
te mp
le ad</w>
fore ign</w>
di alogue</w>
E T
f ran
zi elt</w>
l ist
ben utz
gemä ß</w>
Ges ch
fü h
consi der</w>
Sp ain</w>
p ment</w>
bekan nt</w>
g keit</w>
h on
l ack</w>
Off ice</w>
wi l
M is
relev ant</w>
am bi
ig ung</w>
glei chen</w>
mar k</w>
erg ie</w>
amoun t</w>
ver antwor
a de
partn er</w>
sour c
Sel b
4 .
pa y</w>
verbesser n</w>
e uro</w>
gen u
di o
c ateg
cor rec
O N
sieh t</w>
so on</w>
mb H</w>
Über ein
s eh
ill a</w>
t z</w>
a gi
li ert</w>
en ough</w>
c at
ad urch</w>
in fra
Lu ft
s -
ermög licht</w>
entwick elt</w>
Intern et
vel op</w>
Bul g
wel tweit</w>
sch t</w>
D ank</w>
häl tn
ac ity</w>
deci ded</w>
tr au
sp or
Wachst um</w>
consu mers</w>
st adt</w>
organ iz
ges ellschaft</w>
pf lich
hö ch
acc ording</w>
ni ght</w>
benef it</w>
cent ury</w>
Gemein schafts
min d</w>
S A
stat t
Bevölk erung</w>
a th
co ver</w>
su mm
an genommen</w>
Wis sen
Sch ritt</w>
s atis
lan ge</w>
ger ungen</w>
Weit ere</w>
all s</w>
typ e</w>
ment ary</w>
gemein sam</w>
ge k
Ergeb nis</w>
Portu gal</w>
de velop</w>
Land wirtschaft</w>
hel fen</w>
promo te</w>
cre ated</w>
design ed</w>
sp rä
Mit arbeit
pop ulation</w>
A G</w>
St at
no ti
maj ority</w>
F le
fa ir</w>
wichtig sten</w>
Fü hr
Ein k
ke ep</w>
b au
K oh
la un
im medi
üs se</w>
K amp
B re
min ister</w>
F rom</w>
Tur key</w>
lu s</w>
sicher heit</w>
IO N</w>
extre m
is ters</w>
jo int</w>
sp richt</w>
Angele genheiten</w>
be w
materi al</w>
G mbH</w>
g oods</w>
con fi
O c
2 7</w>
p ages</w>
su per
ge stal
f rie
hist ory</w>
Kon trolle</w>
b ack
A gre
sta ge</w>
Öff ent
th an
t ats
we den</w>
st ep
S am
fe el</w>
Deb atte</w>
zun ehmen</w>
agri cultural</w>
Pr in
Lux em
St re
schein t</w>
a .
A m</w>
er seits</w>
en lar
t est</w>
Änderungs ant
commit ment</w>
7 0</w>
Ukra ine</w>
o wn
eb ru
an gebo
le vels</w>
G lob
ci ples</w>
e te</w>
Bestimm ungen</w>
chall eng
throu ghout</w>
Ge or
char ge</w>
Li ber
en ge</w>
entschei den
kl einen</w>
er ed</w>
mo di
to s</w>
ell ing</w>
ter rit
ein schließlich</w>
R ec
as h
I L
par ts</w>
Integr ation</w>
al most</w>
break fast</w>
y le</w>
Rechts vorschriften</w>
ständi ge</w>
ke i</w>
te am</w>
f unding</w>
tre ffen</w>
Wettbewer b</w>
sch utz</w>
betre ff
succ ess</w>
le ading</w>
P at
K or
du res</w>
Regi on
T ri
Lis te</w>
Beschäf tigung</w>
an ischen</w>
ast ro
bo ard</w>
spe ak
ch e
out side</w>
verschie dene</w>
et c</w>
sch ö
ag er</w>
2 -
Jah res</w>
C ro
F i
off en
trä ge</w>
we is
An wen
EI B</w>
ne ar</w>
wo bei</w>
de p
F ebru
E ff
wich tigen</w>
re main</w>
st elle</w>
Gesund heit</w>
Isra el</w>
bark eit</w>
fri endly</w>
Kol leg
Energi e
sam keit</w>
fi ve</w>
201 3</w>
use um</w>
Nutz ung</w>
F er
stan ces</w>
un abhängi
tic s</w>
V ide
Aussch uss</w>
ier ungs
inclu ded</w>
re a</w>
z ös
in ation</w>
I D
Tür kei</w>
mög lich
C A
Erweit erung</w>
Nä he</w>
z ation</w>
U R
ges prochen</w>
Jap an</w>
recei ve</w>
k er
jen igen</w>
Untern ehmen
K rise</w>
ho ffe</w>
f s
h atten</w>
con fir
u ally</w>
long -
Kon z
D ol
spiel en</w>
re alis
gan genen</w>
Do ch</w>
gef ähr
re ach</w>
E P
ver ur
ent ri
kan ischen</w>
vi ce</w>
con ven
ter ran
L on
än dern</w>
am es</w>
W al
proce dures</w>
cap acity</w>
fac il
än dert</w>
at trac
S at
pl ann
hr en</w>
H af
st ly</w>
bi g</w>
con sequ
s la
ne ver</w>
Em pfeh
pri ority</w>
ber g</w>
kon z
ex change</w>
ge eig
wi ll
A c
ri ch</w>
gel eg
ri gen</w>
li ving</w>
ing -
bu tion</w>
practi ce</w>
w at
prov isions</w>
lat er</w>
be hör
conf lic
Verein bar
si di
es tig
extrem ely</w>
dig ung</w>
Gesund heits
Ni cht
foc us</w>
Han del</w>
S M
Fo re
Jun e</w>
Geschi chte</w>
Herr en</w>
prin ciples</w>
2 2</w>
limit ed</w>
R au
guaran tee</w>
gan gen</w>
pack age</w>
t ory</w>
lin ks</w>
increas ed</w>
gehör en</w>
o ft</w>
in en</w>
gri ff</w>
, 000</w>
gu ests</w>
an z</w>
ander er</w>
geri chtet</w>
spezi f
Mi ch
tion ing</w>
gegen wär
g as</w>
sh or
P lease</w>
stell ungen</w>
ta g</w>
Th e
h tt
lo g
gleich zeitig</w>
ru n</w>
me t</w>
Projek t</w>
Projek te</w>
S en
p e</w>
H um
sätz e</w>
hin sichtlich</w>
Ge f
des cri
vi elleicht</w>
c ru
si an</w>
re staurant</w>
z ig
te m</w>
perform ance</w>
genann ten</w>
G ele
tu al</w>
Econom ic</w>
th ern</w>
ar ri
syst em
g res
f ight</w>
Ho w</w>
verfü gt</w>
we ek
n a</w>
er c
li gh
it es</w>
us ers</w>
ger ung</w>
sor gen</w>
k or
L A
ermög lichen</w>
Win dows</w>
ck ing</w>
wen den</w>
a men
trag s
li ance</w>
E F
Rah men
V is
gewähr leisten</w>
r und</w>
M an</w>
regar ding</w>
den ts</w>
kommen s</w>
sour ce</w>
und es
P ress</w>
199 8</w>
tru e</w>
B y</w>
inclu des</w>
wen ig</w>
treat ment</w>
sub st
ge st
Ak tiv
s ag
be finden</w>
kno wledge</w>
Hand els
redu ce</w>
in te
Techn ologi
Mob il
com fortable</w>
sci enti
ab zu
Ter ror
leg ung</w>
ar in</w>
Par is</w>
men tioned</w>
c are
w and
Ver sion</w>
Arbeitsp lätz
Lis bon</w>
ci vil</w>
m ei
Ver wendung</w>
zi ert</w>
i al</w>
a y</w>
Ameri can</w>
c y
bet ro
Sin ce</w>
S P
K am
conc ern</w>
ba sic</w>
schri ft
Tat sache</w>
T r
z .
Bem üh
j äh
Industri e</w>
sch ön
Erklär ung</w>
su m
opport unities</w>
enth ält</w>
b ly</w>
Auf gabe</w>
k eit
hig her</w>
sozi ale</w>
v eh
inv estig
K enntn
construc tion</w>
f al
eben so</w>
schaft lichen</w>
ins gesamt</w>
cro ss
fol ge</w>
Ein führung</w>
üs sel</w>
vi de
Re cht
Lis sab
demon str
über sch
Aus druck</w>
f s</w>
blei bt</w>
achie ved</w>
kon nte</w>
comm unity</w>
no te</w>
ah n</w>
cre ation</w>
ra gen</w>
in ge</w>
dar um</w>
tra gs</w>
rä u
S eit</w>
Mitg lied</w>
ür z
suff ici
Ein satz</w>
Itali en</w>
supp ly</w>
Ih rem</w>
uni on</w>
pr ise</w>
Nat ur
present ed</w>
Erfol g</w>
uni que</w>
stat tet</w>
K op
läs st</w>
un ds</w>
Centr al</w>
er st
con stitu
Woh n
abl ed</w>
ol l</w>
Ant wort</w>
recei ved</w>
h ard</w>
situ ated</w>
E W
partn er
D amen</w>
j un
connec tion</w>
mu sic</w>
it al
Con vention</w>
ch em
actu ally</w>
sur ro
ab schie
hä tte</w>
ep tion</w>
boo k</w>
J oh
every thing</w>
9 0</w>
f oo
är en</w>
plat z</w>
ati v</w>
ar d
ver bin
contribu tion</w>
ide a</w>
fort un
pre par
is on</w>
dem and</w>
Stell ung
Dam it</w>
Ameri ca</w>
Ver f
el ess</w>
än de</w>
F ri
tei en</w>
ge o
manufac tur
carri ed</w>
equi pment</w>
ei en</w>
ac comm
je dem</w>
M et
a den</w>
N ational</w>
ser ved</w>
Sch wi
Jun i</w>
gen der</w>
acc ord
Berichterstat ter</w>
be deut
K ir
milit ary</w>
sen d</w>
Dar über</w>
m als</w>
stell er</w>
ri chten</w>
Z entr
ung sp
recog ni
wer k</w>
gen ie
bestimm te</w>
in tel
gen t</w>
enth alten</w>
a il</w>
d ischen</w>
industri al</w>
under stand</w>
do ing</w>
0 -
t op
sourc en</w>
P u
consu mer</w>
w ahl</w>
Bil dung</w>
Re form</w>
beit ragen</w>
vol le</w>
l d
provi ding</w>
an no
si mil
B ur
Beschäf tig
be ein
ver hin
C a
geh end</w>
lan gen</w>
Agre ement</w>
t ent</w>
proc ess
bal d</w>
b ein
Komm unik
acc ept</w>
ne u</w>
er sch
do wnlo
ne w
A gr
Regi erungen</w>
ste ad</w>
we ek</w>
Lan des</w>
o v
De z
sig keit</w>
re ports</w>
Vor aus
Bar cel
f is
er le
consider ed</w>
Z ahl</w>
s ett
Dec ember</w>
tra ff
vi r
c riteri
fün f</w>
billi on</w>
inter net</w>
for dern</w>
f lä
en or
respon se</w>
re f
ex ternal</w>
H ung
guaran te
par ty</w>
Partn er</w>
Unter such
c ard</w>
P an
K rank
B us
gar anti
cent er</w>
bel ow</w>
er inn
m es
w ed</w>
Verk ehrs
Mit teilung</w>
reas ons</w>
z. B.</w>
S an</w>
la g
Di alog</w>
St är
eg ation</w>
ei gent
veh ic
ga b</w>
al lows</w>
tradi tional</w>
Aussch usses</w>
Sp anien</w>
ill s</w>
ha ps</w>
Pre is</w>
G rie
2 3</w>
feat ures</w>
Z im
effec ts</w>
re lease</w>
re ich</w>
ver ti
I G
qui ck
mehr ere</w>
E ast</w>
fi k
prev ent</w>
Ver bindung</w>
ktion s
Ma y</w>
profession al</w>
n it
we st
l an</w>
be ach</w>
er -
dra ft</w>
increas ing</w>
E- Ma
reli gi
ur n
öffent liche</w>
ho urs</w>
In st
US -
rit ten</w>
d or
Auff assung</w>
O ber
al though</w>
i cial</w>
No twen
li er</w>
Z entrum</w>
Inv est
le h
auf zu
verfü g
r un
innov ative</w>
Au g
Gr enz
fam ous</w>
ati c</w>
kul turel
bestimm ten</w>
l auf
M as
effici ent</w>
kri min
success ful</w>
wä l
val ues</w>
4 5</w>
C ol
bal ance</w>
en able</w>
Früh st
ü b
aspec ts</w>
In n
Z ei
st ability</w>
lang fris
S outh</w>
Reg ulation</w>
se ts</w>
kl eine</w>
ver pflich
a ware</w>
Organis ation</w>
So li
de ten</w>
wur f</w>
ad ded</w>
applic ations</w>
ei lig
ru s</w>
man n</w>
is ierung</w>
Min uten</w>
progra m</w>
d est</w>
h esi
pur ch
B undes
re turn</w>
g ül
bi o
inte gri
h ous
üs sel
Tag es
B lick</w>
20 20</w>
sch le
c as
sion s
In fra
2 3
ke y
je de</w>
Dez ember</w>
rei fen</w>
Par k</w>
rit ts
plac ed</w>
ann ual</w>
p ite</w>
2 5
tr a</w>
grund le
re in
an ten</w>
Z um</w>
Afri ca</w>
comp reh
sig n
I N</w>
par lia
ür f
Ir an</w>
h äu
ver öffent
con duc
set ting</w>
tel y</w>
am a</w>
ei gen
cover ed</w>
er lau
G eh
be stä
ish eries</w>
S um
Ge wal
tim men</w>
re view</w>
Them en</w>
add res
t lichen</w>
in flu
z in
ologi cal</w>
comp et
mo del</w>
199 7</w>
Notwen digkeit</w>
syst eme</w>
Lös ungen</w>
er wäh
setz ungen</w>
intern ation
ha f
Sp an
Russ land</w>
cho ice</w>
ig keiten</w>
fä hi
ch oo
B it
zus etzen</w>
Fe der
tem por
be stehen</w>
reach ed</w>
M al</w>
jo b</w>
pro f
fol genden</w>
S ie
h om
ge ments</w>
Gi pf
Ko ordin
je des</w>
form er</w>
s ou
Ko so
Bemüh ungen</w>
sk i</w>
men ten</w>
Mitgliedsta at</w>
entwick eln</w>
mo ve</w>
x ed</w>
d ates</w>
F und</w>
mom ent</w>
h t</w>
pl ant</w>
Hinter grund</w>
P R
WT O</w>
M ul
am s</w>
high -
challeng es</w>
li z
U N</w>
fi g</w>
comm ittee</w>
rec ently</w>
d aten</w>
cons ist
sp i
hi le</w>
e e</w>
it able</w>
h or
O k
201 1</w>
govern ments</w>
verb unden</w>
ges ell
2 8</w>
Ver anstal
O per
Gele genheit</w>
ber ech
Lon don</w>
c le</w>
origin al</w>
rema ins</w>
An ti
hand eln</w>
zeu gen</w>
2 6</w>
den ke</w>
Änder ungen</w>
an ces</w>
si ze</w>
Kul tur
disc uss
se x
Aug ust</w>
ph y
sel ec
serv ation</w>
b auen</w>
Drit t
certain ly</w>
ad ap
m ise</w>
ger ä
Vol ks
x is</w>
G l
M än
A ra
instru ments</w>
Gericht shof</w>
j ähr
an gen</w>
fil es</w>
sor gung</w>
lei chter
Tran spar
Kommiss arin</w>
rou ght</w>
ar ran
Öffent lichkeit</w>
An aly
G eld</w>
Bet ri
lu x
außer dem</w>
o .</w>
V o
i d
wei s</w>
d ynam
organis ations</w>
mäß ig</w>
be züglich</w>
H el
Agr ar
los s</w>
frei en</w>
s mo
hei ßt</w>
Lie fer
Re is
Zeit punkt</w>
sch ätz
recom mend
on i
lab our</w>
F ach
TH E</w>
hal ten
p le</w>
benef its</w>
ck e</w>
sec tors</w>
be zieh
le gi
terran ean</w>
H am
Inter essen</w>
as ked</w>
et ary</w>
Fin ally</w>
ev al
saf e</w>
buil t</w>
Kolleg innen</w>
Plat z</w>
step s</w>
pre vious</w>
neu er</w>
deta ils</w>
bet eili
En ergie</w>
Sch wei
V or</w>
par k</w>
mo vement</w>
Ber at
establ ish
ach es</w>
ser ies</w>
colle ag
C ap
dd le</w>
U K</w>
men sion</w>
g te</w>
enlar gement</w>
E st
stän de</w>
Fore ign</w>
pas sen
äh n
O -
pos sibility</w>
Beh and
to -
sho ws</w>
custom er</w>
fun den</w>
we ch
C -
writ ing</w>
hä lt</w>
di enen</w>
tis h</w>
w ise</w>
co de</w>
mat ters</w>
Proto k
mig ration</w>
elec tri
schwi eri
A pp
zei chn
C re
m em
Durch führung</w>
Austri a</w>
ver letz
commer cial</w>
Uni ver
3 5
reg ards</w>
p al
B usin
hin zu
Bu ch
Gre ece</w>
Ur lau
be kommen</w>
u ß</w>
leist ungs
sen se</w>
los sen
ele gan
er ziel
st or
Kul tur</w>
D -
ad d</w>
ch ter</w>
Änderungsant räge</w>
Ma i</w>
w under
zeh n</w>
ut y</w>
I R
riteri en</w>
ra h
rich tig</w>
streng th
F a
To day</w>
r at</w>
lat est</w>
sam m
wei ß</w>
en ding</w>
ab or
de te</w>
re p
nu clear</w>
pur su
tradi tion
eff ek
al ist</w>
Grie chen
Finanzi erung</w>
al -
Entschließ ung</w>
zur ück</w>
an ge</w>
3 5</w>
ra ce</w>
W ahr
ver tre
anno un
finan cing</w>
fran zös
legisl ative</w>
Hö he</w>
Grün den</w>
quick ly</w>
stat us</w>
w inn
kur z
Abgeord neten</w>
f ishing</w>
schließ end</w>
comple tely</w>
pub lic
accomm od
tain ing</w>
perf ect</w>
Po licy</w>
Engl ish</w>
V en
EU RO
Auf enth
an te</w>
acc ession</w>
M y</w>
k i</w>
Medi terranean</w>
Soli dar
zah len</w>
so ft</w>
Ma ß
som it</w>
re chts
Änderungs antrag</w>
c ell
Fir st</w>
Kommission s
ple as
zweit en</w>
f ru
E D</w>
ar chit
sch lä
struk tur</w>
k li
Regel n</w>
unser es</w>
f eld</w>
j üng
weit en</w>
ff enen</w>
er e
innov ation</w>
enti re</w>
ni ed
6 .
no thing</w>
pro b
bish er</w>
con ference</w>
er ster</w>
Forsch ungs
Un ser</w>
an gen
Gesam t
fol gerungen</w>
Mar ch</w>
i tion</w>
Schl uss
D ER</w>
Ber u
fre i</w>
bes u
Verpfli chtungen</w>
beginn ing</w>
Tex t</w>
wh ose</w>
ho ben</w>
sident schaft</w>
B as
spru ch</w>
S ome</w>
Da bei</w>
Am ster
con tains</w>
pro mise</w>
gesch i
g ame</w>
t ritt</w>
o il</w>
off ice</w>
hesi on</w>
g lichen</w>
ba si
si bi
po st
re ad</w>
sub mitted</w>
opp el
e .
vol u
criteri a</w>
t ag
ho hen</w>
Man agement</w>
sieh e</w>
contribu te</w>
hau p
do or</w>
trans l
ther more</w>
199 6</w>
........ ........
del ines</w>
ü bri
Zi vil
m einen</w>
fol gt</w>
gel ten</w>
fron t</w>
bil ater
k ap
protec t</w>
Fl ü
sek tor</w>
exp ected</w>
au er</w>
verfü gen</w>
sto p</w>
re land</w>
nei gh
s ent</w>
durch geführt</w>
T im
conclu sions</w>
wa ste</w>
g ünsti
simp le</w>
g ol
gan zen</w>
we b</w>
ord n
equi pped</w>
th y</w>
restri c
u x</w>
ch ing</w>
pur pose</w>
bes chäf
Kon ferenz</w>
recom men
ch ern</w>
ru le</w>
O N</w>
verein bar
B ar</w>
zeu ge</w>
suppor ted</w>
verstän dlich</w>
on nen</w>
I reland</w>
infra structure</w>
An fang</w>
indepen dent</w>
h öh
A T</w>
tig es</w>
wal k</w>
e y
groß er</w>
Me tho
Konta kt</w>
igh ts</w>
o t</w>
di ver
Berei che</w>
So cial</w>
Entschei dungen</w>
ac tivity</w>
sibi lities</w>
g ers</w>
ari es</w>
19 6
m y
ati v
stim men</w>
mobi le</w>
ei gene</w>
fun ction</w>
b ad</w>
ab solu
exp lo
wi der
Mon aten</w>
Ei gen
disc ussion</w>
Mat eri
er kan
me an</w>
Proz ess</w>
agen da</w>
e ten</w>
Re chn
Kre di
W an
Sch wer
Geb äu
den s</w>
aus ch</w>
ar ing</w>
b it</w>
n ü
bour g</w>
Beihil fen</w>
3 00</w>
D P</w>
Barcel ona</w>
Schl ussel
Oc tober</w>
vor han
L auf
reduc tion</w>
wir ken</w>
ma g
pri orities</w>
Währ end</w>
Wo che</w>
s al
me an
monit oring</w>
s eite</w>
over all</w>
dig lich</w>
L et</w>
sag te</w>
ren e
di ent</w>
ast ern</w>
Mär z</w>
tig keiten</w>
K a
ne ben</w>
mög lichkeiten</w>
simil ar</w>
ba th
W ert</w>
C i
tr auen</w>
it ali
Ther efore</w>
shi ps</w>
ap poin
M ore</w>
An forderungen</w>
c r
long- term</w>
Selb st
Pre ise</w>
0 ,
re over</w>
c ou
vi g
Syst ems</w>
Angebo t</w>
O M
Koso vo</w>
b rought</w>
Vertre ter</w>
s wi
pres ents</w>
Agen da</w>
er y</w>
ein deu
europä ischer</w>
d .</w>
ve ments</w>
zweit e</w>
high ly</w>
well -
reib ung</w>
ver age</w>
Pl an</w>
person s</w>
star k</w>
st yle</w>
I F
we g</w>
let ter</w>
effici ency</w>
dis crimin
materi als</w>
s cre
g ten</w>
busin esses</w>
b li
per at
stu dy</w>
Br ussel
F ak
K ra
trav el</w>
se ems</w>
201 2</w>
Mi o.</w>
Binnen markt</w>
zeu gt</w>
7 5</w>
em pf
c um
p il
vi ously</w>
Te chni
S -
Janu ary</w>
konz entri
integr ated</w>
B ack
sp ac
j usti
ac ks</w>
colle c
holi day</w>
A M
implemen ted</w>
ges p
ber s</w>
S on
distri bution</w>
St äd
Priv at
vo c
stell ten</w>
grat ul
An streng
tats ächlich</w>
docu ment</w>
Aktiv itäten</w>
s si
N ationen</w>
ar gu
Wettbewerbs fähigkeit</w>
ri cht
An zahl</w>
zun ächst</w>
T it
gan ze</w>
D V
op h
an -
Al b
s ent
ori en</w>
S omm
Brussel s</w>
B ü
imple ment</w>
Ber eit
wach sen
ent ed</w>
z en
1 -
low er</w>
cre ating</w>
br ingt</w>
zei chnung</w>
k it
inde ed</w>
part ment</w>
at mosp
gesam te</w>
rie g</w>
ali en</w>
Pre is
plac es</w>
pa id</w>
prep ared</w>
K ern
st ar</w>
re gu
R aum</w>
zi eren</w>
ih res</w>
inten si
appro ved</w>
Innov ation</w>
ge m</w>
Heraus forderungen</w>
sho wn</w>
d adurch</w>
7 -
in fr
Ak tion
get ary</w>
Ju ly</w>
can di
ade qu
ar tige</w>
ch eck</w>
pl ans</w>
assess ment</w>
ein heit
b ür
ver gangenen</w>
w ander
htt p
ger ne</w>
st a</w>
Ad res
199 5</w>
dra w</w>
rä fte</w>
der zei
Ho tel
elek tron
mit g
au t
gi ves</w>
Z ur</w>
le diglich</w>
publ ished</w>
facil it
A -
so und</w>
Af gh
re forms</w>
Än derung</w>
Stand punkt</w>
en di
H ere</w>
Gener al
eff ort</w>
Über wach
t sp
angem essen
a cht
Ho st
ear ch</w>
2 ,
E ing
k lu
k at
comple x</w>
la den</w>
pa yment</w>
En viron
organis ation</w>
initi atives</w>
m m</w>
fortun ately</w>
Wir k
S up
ti sch</w>
app lied</w>
Bit te</w>
k ing
Mehr heit</w>
ima ge</w>
Y or
kon trol
M ig
amend ment</w>
ab kommen</w>
lar gest</w>
st atisti
produc ed</w>
b ir
V ic
gu ten</w>
cre dit</w>
call s</w>
si cal</w>
h äre</w>
h of</w>
transpar ency</w>
elec tron
Kenntn is</w>
subst anti
ein gesch
pl om
pres sure</w>
Tran s
sch wer
öff net</w>
po ver
. h
Produ ktion</w>
P P
gel eit
e vi
dis ku
direc tion</w>
hu ge</w>
größ ten</w>
Itali an</w>
y ond</w>
Ok tober</w>
compreh ensive</w>
V al
ul i</w>
kan n
le istet</w>
ver abschie
establ ish</w>
comp uter</w>
Aut om
ni ce</w>
7 .
rel ation</w>
cle an</w>
völ lig</w>
al ing</w>
En ter
F eri
sor g
at temp
proz ess</w>
West ern</w>
C ha
te i</w>
: /
:/ /
St o
b ig
L es
sch ütz
n ö
f alt</w>
con gratul
F ä
G est
requ ire</w>
spä ter</w>
proper ty</w>
ti l
rel ation
verwen den</w>
k ro
N ord
every one</w>
Mitarbeit er</w>
technologi es</w>
n ie</w>
competi tive</w>
dis e
ge funden</w>
Servi ces</w>
p ul
s yn
analy sis</w>
läs si
Stellung nahme</w>
fol low</w>
2 9</w>
sig ned</w>
c las
för dert</w>
Z wei
vorgesch la
lin k</w>
Verbrau cher
wichtig er</w>
C z
accord ance</w>
ans wer</w>
Bri tish</w>
A ss
O ri
v in
fi el
as su
Transpar enz</w>
T ele
ver treten</w>
L at
zun ehmen
Fäl len</w>
enn t</w>
stell te</w>
As soci
Aus wahl</w>
Amster dam</w>
sol chen</w>
prü ft</w>
rä f
Organis ationen</w>
Fol gen</w>
T ab
erneu t</w>
behin d</w>
Per son</w>
pro jek
T age</w>
Par teien</w>
we g
choo se</w>
emplo ye
ho he</w>
Erfahr ung</w>
erk ennen</w>
E G</w>
besch rän
ver wal
on t</w>
ein gesetzt</w>
Sch utz
ó n</w>
http ://
K ing
E L</w>
Kamp f</w>
H y
sel y</w>
regul ations</w>
fas sen</w>
eb s
W ort</w>
struc tural</w>
M icro
Regel ung</w>
Griechen land</w>
re pe
S ing
pre ci
reas on
O st
tro ll
Fischer ei
k an</w>
ve au</w>
soli dar
P ap
ho tels</w>
docu ments</w>
E mp
Nach bar
auf genommen</w>
geb aut</w>
administr ative</w>
O f</w>
Famili e</w>
E mis
si x</w>
di e
Bu d
nah m</w>
stand s</w>
requi res</w>
Sch la
E is
st ausch</w>
er weit
minim um</w>
geb ie
A mend
ander em</w>
H om
hi bi
pos es</w>
oper ating</w>
suffici ent</w>
ti er
c e
L ehr
ein zig
R ights</w>
c lu
clos ed</w>
de ck
Stu di
ele ments</w>
mu t</w>
un e</w>
äu ß
sti e
Janu ar</w>
se ek
en a</w>
wer s</w>
Gr enzen</w>
A L</w>
H and</w>
Kon fli
entsprech enden</w>
m üh
or g
Präsiden ten</w>
rie b</w>
W erk
äußer st</w>
sen si
ge tro
ti k</w>
Span ish</w>
No w</w>
W ahl</w>
wäh len</w>
b ran
equ al</w>
br ing
C ity</w>
fa il
l ung
Des ign</w>
p ing</w>
zahl reiche</w>
adv an
Spra che</w>
M y
b ahn
than ks</w>
Bil d</w>
2 4
eh em
produ ce</w>
Anstreng ungen</w>
zi p</w>
geh ö
Or gan
re views</w>
un mittel
An satz</w>
Verwal tungs
to ols</w>
charac ter
lik ely</w>
ter in</w>
comp on
E ig
pr ises</w>
bew us
Sü d
Zeit raum</w>
zu führen</w>
we ist</w>
er ous</w>
J uli</w>
ten en</w>
2 8
gu est</w>
gen ce</w>
B lu
dou ble</w>
D om
altern ative</w>
spe ed</w>
grow ing</w>
typ es</w>
ä st
C am
Ver tei
Fur thermore</w>
A K
gra p
v an</w>
di tion</w>
sel f-
An nahme</w>
fre qu
bi a</w>
po pu
Po sition</w>
zi p
U p
cross -
institu tion
T sch
er zielt</w>
Er n
St elle</w>
s us
Gewal t</w>
ic es</w>
scienti fic</w>
et z</w>
lea ve</w>
besser e</w>
Mittel me
Gef ahr</w>
gew öh
berücksich tigt</w>
sch es</w>
con ver
impro ving</w>
m and
di enst
dig ital</w>
L it
opp ing</w>
Te am</w>
ex ec
wi esen</w>
S E</w>
Res sourcen</w>
C li
bet rä
ko sten</w>
flo or</w>
alis m</w>
sat z
O S</w>
ell a</w>
W asser</w>
verpflich tet</w>
Chr ist
fas st</w>
fil m</w>
ob wohl</w>
ver stehen</w>
por ate</w>
größ te</w>
fest gelegt</w>
per haps</w>
instru ment</w>
pover ty</w>
ent lich</w>
an gesichts</w>
staat lichen</w>
Pol and</w>
I P
us sions</w>
l y
buil d</w>
competi tiveness</w>
Verwal tung</w>
al lowed</w>
ek t</w>
ban ks</w>
Fran k
rel ating</w>
kl ar
a war
easi ly</w>
K raft</w>
S ou
pla yed</w>
lie genden</w>
exp la
inter pre
sta aten</w>
ill ed</w>
Schwi er
Con ference</w>
Sec urity</w>
n ationale</w>
besch lossen</w>
T ER
avo id</w>
te sten</w>
streng then</w>
key word</w>
spo liti
ser ver</w>
elec tions</w>
ver l
T E</w>
ab ge
P as
le gt</w>
allgem einen</w>
z z
fol gende</w>
ri eben</w>
ten s</w>
t ou
ra di
on s
gen utz
ens uring</w>
man ent</w>
ur i
lich ung</w>
um -
lat er
r ing</w>
gesch affen</w>
S onder
techn ischen</w>
star ted</w>
qu ar
m einem</w>
UN G</w>
w -
summ er</w>
particip ation</w>
op tion</w>
Auf merk
auth or
pa y
is te</w>
Sch ritte</w>
cre di
emis sions</w>
Programm s</w>
Res er
ph one</w>
wer t
h eb
con tr
ö st
vi er
f ts
drück lich</w>
vide o</w>
Wah l
viol ence</w>
Zentr al
men sch
popu lar</w>
conflic t</w>
S CH
Aspek te</w>
Mark et</w>
spe ak</w>
w oll
sho p</w>
gi gen</w>
u l</w>
re k
3 -
writ ten</w>
aim s</w>
Univer sit
keit s
gi ving</w>
land s
O pf
C u
änder ungen</w>
wer k
stat ement</w>
wer te</w>
kon nten</w>
Se e</w>
s th
Arbeit nehmer</w>
en se</w>
Milli ar
Al so</w>
strategi c</w>
D I
sta g</w>
sc ope</w>
dec isi
Nor th</w>
P H
cru cial</w>
c in
re ference</w>
Sin ne</w>
Gel d
Ser ver</w>
il legal</w>
Re formen</w>
A G
vol len</w>
Br üssel</w>
Bed ürf
sp ann
wi d
be yond</w>
H aus
categ ories</w>
ab sol
ta k
c ast
institu tional</w>
Dur ing</w>
olog ischen</w>
fi z
Fun ktion</w>
stoff e</w>
S im
d an</w>
3 1</w>
leist ung</w>
accep table</w>
vor gelegt</w>
re siden
ev ent
A gri
conc entr
Aufmerk samkeit</w>
Me er</w>
Medi en</w>
represent atives</w>
Sch ließ
fre u
S af
C D</w>
Um gebung</w>
t on
einzi ge</w>
ei l</w>
King dom</w>
In de
nor m
i k</w>
D et
ver suchen</w>
r ural</w>
Pub lic</w>
ri ge</w>
air port</w>
Pun kte</w>
Ein richtung</w>
ci a</w>
dam age</w>
accommod ation</w>
Frei heit</w>
Behand lung</w>
Her zen</w>
Z un
-- --
off icial</w>
se kre
for ces</w>
be stehenden</w>
ic ally</w>
di gt</w>
Centr e</w>
Stad t
b ase</w>
D ro
jewei ligen</w>
go sla
schrift lich</w>
eh er</w>
fa ir
lei cht</w>
ber t</w>
g yp
p ati
adop tion</w>
19 5
si li
region alen</w>
m är
atmosp here</w>
T R
Bür gern</w>
selb st
N ur</w>
l ing
führ te</w>
z t</w>
b and</w>
st ark
ster reich</w>
K ro
hol d</w>
wün schen</w>
advan tage</w>
bu ff
ple ased</w>
ru hi
Nat ur</w>
mp tion</w>
is tischen</w>
em er
aff ected</w>
Rat sprä
gen ehmig
Ne ther
practi cal</w>
oo m</w>
Lin ie</w>
ur ance</w>
in i</w>
Köni greich</w>
tempor ary</w>
L eg
aim ed</w>
read ing</w>
s sen</w>
s qu
t ac
eilig ten</w>
ob en</w>
n ä
hervor ra
Er k
ra cht
re chts</w>
Vor bereit
be vor</w>
O S
Dem oc
Afgh an
erh öh
ph as
k ers</w>
Pal est
ck et</w>
ro und</w>
alis ed</w>
v ent
D or
P D
O F</w>
r as
Yor k</w>
fäl le</w>
M and
ci ties</w>
Ver trags</w>
Al though</w>
to ol</w>
prä sen
th ous
consequ ences</w>
D ep
On lin
Cz ech</w>
cir cum
N AT
ur spr
deut schen</w>
se chs</w>
j ahr</w>
be ziehen</w>
Gä ste
vorgesch lagen</w>
lu ß</w>
Sec ret
Beri chts</w>
humanit arian</w>
M useum</w>
ic k</w>
ni e
sch ool</w>
f ying</w>
Schluss folgerungen</w>
Erfahr ungen</w>
üh m
ti e
adop t</w>
W a
tar get</w>
sch o
er leichter
vari ety</w>
develop ments</w>
k en
zu frie
oper ate</w>
commit ted</w>
gew is
partner ship</w>
vi cti
Ne w
D inge</w>
Sp ec
P C</w>
grupp e</w>
erk ennung</w>
Z y
is land</w>
Ver trags
W hile</w>
maxim um</w>
in stead</w>
bud getary</w>
kon om
mes sage</w>
conc ept</w>
alle in</w>
z er</w>
af ri
trans fer</w>
b all</w>
ateg orien</w>
K riterien</w>
ck er</w>
b ru
W est</w>
terror ism</w>
f ach
S onn
Nether lands</w>
speci fic
K M
Arbeitsplätz e</w>
im pres
com promise</w>
el ten</w>
t ask</w>
k a
k ungen</w>
verhin dern</w>
b y
Associ ation</w>
C hi
Par ty</w>
off ered</w>
Me er
inter ess
inten ded</w>
Qu al
vor gesehen</w>
dom in
Vereinbar ung</w>
car ry</w>
in f
Kin der
erfül len</w>
Busin ess</w>
a .</w>
übersch reit
Sch en
Mo reover</w>
errei ch
st abil
fahr t</w>
ch s
aktu ellen</w>
infr in
p lus</w>
gewöh n
ell es</w>
Disk ussion</w>
Tele f
d ische</w>
geleg ten</w>
gui delines</w>
k am</w>
far mers</w>
ex erc
impro ved</w>
erg än
D en</w>
priv aten</w>
c ent</w>
off izi
solidar ity</w>
cl ass</w>
Tra de</w>
So ci
encour age</w>
ass ungs
T u
0 9</w>
chan ged</w>
geb iet</w>
In sel</w>
vis it
Wi der
tim ate</w>
der ungen</w>
sp rü
Weit er
ep h
demokrati schen</w>
k ein
racht ens</w>
de cken</w>
E rachtens</w>
außer halb</w>
F inn
st ung</w>
tel l</w>
li ge</w>
establish ment</w>
künf tigen</w>
l ös
entsprech end</w>
Gemein samen</w>
C I
ausge stattet</w>
Gä ste</w>
ent al</w>
val u
sh ops</w>
em and</w>
be müh
ab ri
S il
it en</w>
sc ale</w>
ir gend
expres sed</w>
s cri
high est</w>
N ation
k i
F ac
Pol en</w>
Initi ativen</w>
Ö sterreich</w>
E re
h eben</w>
t ations</w>
u le</w>
Ges prä
co hesion</w>
Uni versity</w>
it ation</w>
be came</w>
F lu
A B
on dly</w>
R um
pro fi
erklär te</w>
s äm
Ma sch
M any</w>
Instru ment</w>
Bil d
Ver hältn
H eute</w>
on ia</w>
ju d
begr enz
9 .
Geor gi
ru ption</w>
a verage</w>
cam pa
be handelt</w>
n or</w>
EC U</w>
K ün
m eines</w>
J av
T or
ig keit</w>
erklär t</w>
R el
ha fen</w>
leit en</w>
Stär kung</w>
Aktion sp
voll ständig</w>
Verk ehr</w>
St unden</w>
dist ance</w>
di g</w>
heu tigen</w>
k rise</w>
sec tion</w>
f ang
struc tures</w>
ro r</w>
M P
st able</w>
A gent
dest ens</w>
gu li
Sp iel</w>
Jahrhunder t</w>
Her z
En g
ld wide</w>
Lissab on</w>
chall enge</w>
le c
ut ting</w>
ungs -</w>
sel n</w>
ne y</w>
gel ten
employe es</w>
immedi ately</w>
führ ten</w>
Un ter</w>
sp an
Str ategi
re staurants</w>
au ber
erfol gt</w>
zeu gung</w>
ori enti
proc esses</w>
agri culture</w>
mark s</w>
lo sigkeit</w>
0 1</w>
il om
ment ar
b is
techn ische</w>
net works</w>
Z weit
T ier
lie fer
Jah res
V I
Be stand
itali en
We b</w>
oper ations</w>
go t</w>
v ali
r ück
enter prises</w>
G DP</w>
Ma cht</w>
comp ati
i or</w>
8 .
li m
wäh l
erwar ten</w>
um gesetzt</w>
steh ende</w>
V oll
stär k
EURO P
M er
m ein</w>
li ves</w>
es tic</w>
op ening</w>
fiel ds</w>
be halten</w>
A D
Beit ritts
j ustice</w>
il leg
vol ution</w>
gan gs
ori z
Sa che</w>
it em</w>
stie g</w>
timm ung</w>
men s</w>
G oo
sicher zustellen</w>
um s
transp or
bu ch</w>
k ehr
Prü fung</w>
Stabil ität</w>
meas ure</w>
aus reich
V öl
deci de</w>
entwick lung</w>
contrac t</w>
get an</w>
den s
w ettbewer
bor ders</w>
B on
wahr schein
S om
sec ure</w>
R E
Al ler
Pro f
Arbeit en</w>
regi me</w>
b at
anti -
gen cy</w>
europ a.
n ess
Ver trauen</w>
A ction</w>
stär ker</w>
un employment</w>
lo sen</w>
ör per
gewi esen</w>
Schwier igkeiten</w>
verk ehr
erwar tet</w>
gre at
Lebens mittel
ex tent</w>
main ly</w>
C op
schaft liche</w>
M us
power s</w>
is tic</w>
es ischen</w>
St .</w>
prov ision</w>
Grupp en</w>
P ho
Mul ti
B or
S .</w>
Eig ent
die jenigen</w>
benö tigen</w>
Er zeug
ß er</w>
Res earch</w>
re le
c ement</w>
sp orts</w>
implemen ting</w>
Bürger innen</w>
king .com</w>
Person al</w>
Woh l
A F
kra ft
Binnen mark
t ary</w>
gen au
a h</w>
AN D</w>
cla im
An erkennung</w>
lö sen</w>
wen ige</w>
F isch
sa chen</w>
lea ders</w>
le -
ex tra</w>
as tic</w>
N E
neu es</w>
ris ks</w>
gel ö
Ein richtungen</w>
sel ben</w>
occ a
il fe</w>
genie ßen</w>
Wirtschaf t
reduc ed</w>
V iz
lei der</w>
Bi o
administr ation</w>
I ts</w>
Ein igung</w>
er o
f ish</w>
ber ühm
Auf gaben</w>
dri ve</w>
coordin ation</w>
G al
beri cht</w>
Prior itäten</w>
ide as</w>
ge worden</w>
b ung</w>
P au
bo t</w>
Partner schaft</w>
ver ring
c raft</w>
grupp en</w>
ca .</w>
lar ation</w>
interest ed</w>
pop ul
am m
Be gin
min destens</w>
apart ment</w>
N r.</w>
un sch</w>
r aten</w>
caus ed</w>
go es</w>
archit ec
con st
ni cht
hä tten</w>
expres s</w>
a der</w>
ec ken</w>
au lt</w>
Investi tions
olog ische</w>
bar er</w>
zü gi
re ality</w>
ach tet</w>
dig keiten</w>
bewer tungen</w>
mon th</w>
histor ical</w>
K no
Er d
verbesser t</w>
St ar
Bewer tung</w>
bed ingt</w>
es si
G et
Inst all
Begin n</w>
bo dies</w>
de ath</w>
d ated</w>
Vor teile</w>
B lo
ho ch</w>
ges sen</w>
Re ak
s ales</w>
S ach
K al
Europ e
de gre
r at
genutz t</w>
Afghan istan</w>
da ily</w>
gra f
cer ti
Ba sis</w>
prü fung</w>
kur z</w>
Nieder lan
fin ance</w>
p ed</w>
Eink lang</w>
P en
promo ting</w>
län g
M eine</w>
interest ing</w>
Environ ment</w>
Techn ologie</w>
th in
min ister
langu ages</w>
re fu
Ex per
Me chan
disc ussions</w>
gener ation</w>
2 6
c lick</w>
et ings</w>
Chr isti
00 0
hel pf
fin e</w>
conven i
Pro c
En ga
finanzi ellen</w>
bro ad
cri me</w>
re ment</w>
Tran sport</w>
B ran
Ir land</w>
Kun st
A S</w>
ah l
E B
fin ally</w>
be auf
d ner</w>
tro tz</w>
zusätz liche</w>
s ü
week s</w>
kommen den</w>
zeich nen</w>
neg ative</w>
fizi erung</w>
ehem ali
F onds</w>
coun ter
Ab sch
wieder hol
Bar ro
un er
est er</w>
H ig
mobi li
An der
off en</w>
Ele k
off ering</w>
en ced</w>
Str and</w>
effec tively</w>
ein fa
t au
ge tragen</w>
metho ds</w>
s ession</w>
Technologi en</w>
Lin ux</w>
modi fied</w>
schütz en</w>
t ol
op tions</w>
mechan is
gen s</w>
Re chnung</w>
C lub</w>
part ments</w>
Pra xis</w>
und ation</w>
Ch anc
s eines</w>
b es</w>
ali ties</w>
a i
eigent lich</w>
Da zu</w>
K u
confi dence</w>
Boo king.com</w>
ti ous</w>
l am
Mo der
en ha
M s</w>
Kü che</w>
fol gen</w>
Aller dings</w>
Syst eme</w>
Kom promis
pro por
practi ces</w>
star ting</w>
Al tern
n ern</w>
Min isters</w>
hör en</w>
inv esti
av ing</w>
S A</w>
fahr ens</w>
rela x
alis ts</w>
ali zed</w>
bil den</w>
electron ic</w>
bo x</w>
stän den</w>
Milliar den</w>
process ing</w>
la ws</w>
Frie den</w>
com par
Bes onder
or row</w>
bei de</w>
exp ec
häu fig</w>
p ass</w>
wor ldwide</w>
zu dem</w>
Produ kt
199 4</w>
Syst em
Rus sian</w>
sch ung</w>
be zo
Comm unic
m ess
R en
Ar mut</w>
our selves</w>
l ate</w>
Min der
M ac
D ig
he al
I V</w>
conclu sion</w>
ma sch
m .</w>
be für
ver mei
gel t</w>
staat liche</w>
ju di
C enter</w>
po or</w>
gesch ä
F ron
commit ments</w>
Tages ordnung</w>
adequ ate</w>
geleit et</w>
re t</w>
9 8</w>
Verein ten</w>
st et</w>
Leit linien</w>
D S</w>
ent spricht</w>
T un
ther wise</w>
B l
M ag
Ein fl
spi ri
H ä
Dru ck</w>
Gebie ten</w>
use ful</w>
inc or
sp er
num erous</w>
N ahr
main tain</w>
Fun ktion
En ergy</w>
Sek tor</w>
ad ju
Fol ge</w>
do w</w>
Prä sidentschaft</w>
C al
ri g
Feh ler</w>
Ges chä
forder ung</w>
tä tig</w>
Sta at</w>
L ab
Ein ige</w>
E-Ma il</w>
Ver gan
Ta gen</w>
d nis</w>
4 8</w>
satis fac
N ations</w>
Gäste bewertungen</w>
ser ves</w>
g .</w>
traff ic</w>
eingesch rän
pe ac
pla yers</w>
ar k</w>
l le</w>
V illa</w>
Flü cht
eili gung</w>
k al
vil lage</w>
suppor ting</w>
Par k
wäh lt</w>
m ous</w>
deta iled</w>
tra in</w>
ad verti
relation ship</w>
ür lich</w>
in stal
happ y</w>
l auf</w>
aff t</w>
veröffent licht</w>
dan ke</w>
so fern</w>
de bt</w>
größ ere</w>
verantwor tlich</w>
at or
Regi erungs
comp ens
f isheries</w>
Secret ary</w>
ge kommen</w>
flexi ble</w>
fäl lt</w>
erfol greich</w>
qu iet</w>
Hig h</w>
so fort</w>
. europa.
ra ised</w>
er ung
cu t</w>
Fir ma</w>
In s
exp ect</w>
w ine</w>
ali a</w>
st es</w>
nah e</w>
Wo chen</w>
ser i
w .</w>
si zed</w>
ver th
Haushal t</w>
si l
Si cht</w>
fl ation</w>
discuss ed</w>
grei f
An frage</w>
for ced</w>
verth eless</w>
Flug hafen</w>
M ari
pho to
al one</w>
Beit ritt</w>
refle c
entr y</w>
A sy
M ün
M ex
Empfeh lungen</w>
entschei den</w>
k ürz
W erte</w>
c .</w>
introduc ed</w>
sich ern</w>
pp ing</w>
h es</w>
glob alen</w>
He alth</w>
le ment</w>
hau pt</w>
ler nen</w>
betreff enden</w>
se as
er ter</w>
S port
m in</w>
plann ing</w>
Instru mente</w>
ge -
stär ken</w>
ri d</w>
l ess
circum stances</w>
ep age</w>
gew o
Wah len</w>
gesch ütz
fl ü
as ks</w>
st ab
histor ic</w>
9 9</w>
begrü ße</w>
T el</w>
Solidar ität</w>
At mosp
deli ver
Mon ate</w>
P RO
t i</w>
zeu g</w>
lau b
in come</w>
tiv al</w>
separ ate</w>
alis mus</w>
Ar chit
Adres se</w>
gram men</w>
consul tation</w>
oblig ations</w>
zi g</w>
äst in
sy m
w onder
clo sely</w>
por ted</w>
gewähr leistet</w>
dar stellt</w>
R ats
des pite</w>
mor gen</w>
di versity</w>
über nehmen</w>
Kra ft
oc cu
Musi k</w>
au di
sub sidi
L am
Hin sicht</w>
Vergan genheit</w>
transpar ent</w>
di plom
d ol
vo ting</w>
metho d</w>
fer ner</w>
Aus gaben</w>
rich tet</w>
sp ir
zah lt</w>
ar a</w>
Konz ept</w>
de fic
chil d</w>
- in-
Onlin e-
downlo ad</w>
Y our</w>
F alle</w>
' ll</w>
go al</w>
ameri kanischen</w>
For um</w>
zahl reichen</w>
B ad</w>
S ite</w>
ger ing
i -
Opf er</w>
D ate
B -
introduc tion</w>
sup ports</w>
he ad</w>
behör den</w>
su s</w>
m ember
nachhal tige</w>
Frühst ück</w>
li mit</w>
grei fen</w>
c ur
Benutz er</w>
defin ed</w>
M c
v ital</w>
dru ck
A N</w>
E ven</w>
sub -
M O
Chin ese</w>
F R</w>
e e
qu anti
con v
fri ends</w>
Hand el
Überwach ung</w>
An gaben</w>
gran ted</w>
pun kte</w>
Ab schluss</w>
wahrschein lich</w>
qu al
b rie
3 3</w>
entsprech ende</w>
re agi
ma p</w>
W ell
increas ingly</w>
S ci
S weden</w>
V iele</w>
stu dents</w>
O R</w>
I -
D u</w>
u tive</w>
sch ä
getro ffen</w>
bre chen</w>
In halt</w>
S ho
F es
milit är
tal k</w>
gre en</w>
exp endi
We ge</w>
Viz ep
nie der
rei cht</w>
mm ing</w>
T S</w>
Tag ung</w>
Bet eiligung</w>
s un
us w.</w>
Kredi t
weit e</w>
sa ying</w>
em phas
M ol
Se a</w>
tur ned</w>
be darf</w>
Ü ber</w>
regu lar</w>
l o</w>
l aufen</w>
kann st</w>
Aus bildung</w>
hin ter</w>
Luxem bourg</w>
ver standen</w>
berücksich tigen</w>
ra il
I s</w>
201 5</w>
or ie</w>
ne ws</w>
Dien ste</w>
cri tical</w>
wan ted</w>
ge geb
brau cht</w>
par king</w>
accep ted</w>
Euro -
curr ency</w>
anim al</w>
dig it
st ör
rich tige</w>
discrimin ation</w>
ho st
colleag ues</w>
Viel falt</w>
hi c</w>
erh ö
deli very</w>
ätz e</w>
selec tion</w>
beg in</w>
ter en</w>
Re present
re fer</w>
sig n</w>
g a</w>
ch ec
i um</w>
an lage</w>
gel n</w>
ep ing</w>
tom orrow</w>
helpf ul</w>
disc uss</w>
apart ments</w>
mehr eren</w>
Lo c
tu de</w>
ander s</w>
All gem
ut ter
jo in</w>
b lu
rene w
some times</w>
begrü ßt</w>
D oppel
sh e
erforder lichen</w>
Micro soft</w>
f la
p ap
gew esen</w>
aus schließlich</w>
ö konom
ma ß
gegen sei
Bo s
lear n</w>
war um</w>
T at</w>
conc re
Rom ania</w>
v isi
f ert</w>
Nat ürlich</w>
Doku ment</w>
lok alen</w>
S wit
län dlichen</w>
cap e</w>
si chten</w>
ori al</w>
wor ked</w>
kämpf en</w>
e- mail</w>
Palest ini
nam ely</w>
Belgi um</w>
9 5</w>
pri m
ish es</w>
wor tern</w>
Kl ein
b ul
drin gend</w>
V ER
besonder en</w>
Bil der</w>
st ated</w>
recog nis
finanzi elle</w>
schnit t</w>
Protok oll</w>
ther e
moder nen</w>
industri e</w>
Entwick lungen</w>
qu es</w>
Gr öß
om men
t ari
ther ap
erfül lt</w>
ch ance</w>
ver sucht</w>
continu ed</w>
pla yer</w>
Koordin ierung</w>
victi ms</w>
letz te</w>
appe ar</w>
Um fang</w>
ent schie
Ob wohl</w>
contro ll
St and</w>
lo st</w>
ut ely</w>
trä gt</w>
Stand ards</w>
N ah
Do wnlo
simp li
lin ked</w>
min dest</w>
ge ber</w>
Enter prise</w>
A le
Ber g
r asse</w>
anim als</w>
influ ence</w>
E A</w>
k oh
zu mindest</w>
Tä tigkeit</w>
be ste</w>
D o</w>
EG -
schö nen</w>
co l</w>
ri gh
Urlau b</w>
breit en</w>
Al t
dom estic</w>
bed au
ap preci
Region al
pro per</w>
bath room</w>
Kon sul
spec tive</w>
hibi tion</w>
P ati
p aper</w>
On ly</w>
cli ents</w>
Nutz en</w>
erg reifen</w>
ex ac
An teil</w>
pay ments</w>
sh opping</w>
gra du
über haupt</w>
he ad
ri ffen</w>
a di
genu g</w>
Zus timmung</w>
pra kti
fre ie</w>
ück e</w>
wä s
Febru ary</w>
her aus
N eben</w>
Sy ri
exper ts</w>
emp ha
l ern</w>
ver si
r ats</w>
gi c</w>
mark eting</w>
pa ar</w>
f it
6 -
ungs verfahren</w>
intel li
an erkan
I mm
ver gessen</w>
op ened</w>
alis iert</w>
Back ground</w>
Ein haltung</w>
recommend ations</w>
Indi a</w>
verschie den
auth ority</w>
Sit zung</w>
3 4</w>
h op
so -
pur poses</w>
congratul ate</w>
ch in
low -
Schlussel wortern</w>
Rum ä
Re staurants</w>
IN G</w>
Su per
sch w
associ ated</w>
vehic les</w>
prob ably</w>
te ach
ste ts</w>
histor ischen</w>
Gar anti
ein ig
Zweit ens</w>
j ur
stu di
list ed</w>
Z er
J usti
kl ein
de ckt</w>
wach st
Atmosp häre</w>
ati vely</w>
L e</w>
u lar</w>
sch reiben</w>
erhö hen</w>
gere cht</w>
kon ferenz</w>
ho od</w>
re present</w>
fol lowed</w>
leit ung</w>
Feder al</w>
R oom</w>
H u
but ed</w>
Fre e</w>
ü hr
substanti al</w>
verb un
geri ch
de -
Re fer
concre te</w>
Con stitu
exc ep
re presents</w>
re st
region ale</w>
künf tige</w>
N u
bil ität</w>
No t</w>
establ ishing</w>
H igh
F el
protec ted</w>
multi later
Währ ungs
Aufenth alt</w>
Terror ismus</w>
i k
B IP</w>
Gre en</w>
strength ening</w>
sp ie
end gül
notwendi gen</w>
Zw eck</w>
Gemein schaft
umfas st</w>
W ein
f res
bestimm t</w>
vor sit
yo ur
Angele genheit</w>
4 00</w>
sti t
Ba de
al ter</w>
buff et</w>
respon d</w>
M om
199 2</w>
mor ning</w>
ak tiv</w>
en g</w>
E u
unterschie dlichen</w>
pe ti
eindeu tig</w>
stat tung</w>
C amp
Zu dem</w>
in ts</w>
du le</w>
nor mal</w>
z eiten</w>
L assen</w>
Ira q</w>
fü gen</w>
M el
Dat eien</w>
th ought</w>
ail s</w>
I denti
g ames</w>
Gebie te</w>
S wis
Beschäftig ungs
u fen</w>
un ten</w>
sch eme</w>
sch wer</w>
under standing</w>
Ho ff
A P
b a</w>
Gebäu de</w>
Leist ungs
D r.</w>
erlau bt</w>
de ep
ün f
W unsch</w>
Produ ktions
2 7
be ge
Amend ment</w>
w esen</w>
Finan cial</w>
R O</w>
An spruch</w>
dar unter</w>
conclu ded</w>
us ually</w>
posi tions</w>
wel ches</w>
ph ase</w>
l ass</w>
dis ast
me etings</w>
O sten</w>
ter e</w>
recht lichen</w>
Schließ lich</w>
min ute</w>
Gipf el</w>
Frank fur
2 .</w>
ges eh
e uro
reduc ing</w>
mach ine</w>
wesent lich</w>
Enga gement</w>
inform ed</w>
CO N
L I
Cro ati
Aussch uß</w>
betro ffenen</w>
f rau
Pri me</w>
s a</w>
nation aler</w>
zu g
möglich erweise</w>
Ph ase</w>
acc es
and a</w>
KM U</w>
199 3</w>
plan ts</w>
man aged</w>
al te</w>
mög lichen</w>
dem ands</w>
z ö
verfüg bar</w>
man ner</w>
em ail</w>
consider able</w>
colle ction</w>
E astern</w>
c on</w>
any thing</w>
k aum</w>
refu ge
mo tion</w>
ali zation</w>
sel ected</w>
ges und
Agri culture</w>
Re guli
flä che</w>
bewus st</w>
dien ste</w>
a i</w>
Kat astro
lo yment</w>
ein geführt</w>
S yn
Proz ent</w>
spar tn
end lich</w>
saf e
9 6</w>
com ments</w>
Co de</w>
r uss
St ar</w>
A sia</w>
ari en</w>
di vi
Bel ar
du m</w>
dat ab
ins urance</w>
derzei tigen</w>
ge zeigt</w>
ch ert</w>
Deb ian</w>
han del</w>
IO N
S tim
ge ändert</w>
bro ad</w>
stre et</w>
tur ing</w>
rit an
organis ed</w>
e ad</w>
10 .
li o</w>
4 4</w>
Vizep rä
os oph
z .</w>
verfol gen</w>
l esen</w>
nach dem</w>
persön lichen</w>
coun t</w>
investig ation</w>
M au
rit t
verk ehrs
an e</w>
cri tic
expendi ture</w>
ac ci
ter t</w>
en su
pla ying</w>
konkre te</w>
hear d</w>
em pfeh
men tion</w>
ck ets</w>
medi cal</w>
n etz
glei che</w>
F alls</w>
Air port</w>
3 6</w>
sk ills</w>
g ment</w>
Acc ording</w>
tra ding</w>
ro h
Date i</w>
Verf assung</w>
be ha
Goo gle</w>
201 4</w>
0 2</w>
über zeugt</w>
Ab satz</w>
b ab
run ning</w>
. e
refer red</w>
istr y</w>
Ent wurf</w>
on y</w>
th in</w>
erziel en</w>
on y
at tra
moun tain</w>
end or
impro vement</w>
Febru ar</w>
tr ust</w>
sin n
he av
Pres sem
um fang
Fern er</w>
comp liance</w>
SM Es</w>
Inde ed</w>
Untersuch ung</w>
cross- border</w>
ran ts</w>
Wirtschafts -</w>
fu er</w>
ver an
H ier
e ful</w>
Kun den
Z oll
orig in</w>
ausge zeich
Un gar
Pe ople</w>
é s</w>
ex ist</w>
Zu stän
Th ank</w>
Ban ken</w>
Swit zer
pas sen</w>
famili es</w>
su itable</w>
particip ate</w>
correc t</w>
wesent lichen</w>
dou bt</w>
P il
Ger ä
G eg
1 50</w>
v ul
w ron
199 0</w>
beg innen</w>
Ver bin
D istri
ab ilities</w>
mittel t</w>
begrü ßen</w>
vir tu
sa ys</w>
kan ische</w>
tour ism</w>
regul atory</w>
Del egation</w>
Vor haben</w>
ein gerichtet</w>
a cht</w>
S oll
Nach fol
w ser</w>
poli ce</w>
ar m
dan ger
requ est
tä r</w>
sto ck</w>
fis cal</w>
Kon tin
Produ kten</w>
K ris
grenz überschreit
beru f
Menschen rechts
alis ten</w>
K rieg</w>
un bedingt</w>
get ting</w>
qu alität</w>
at ta
st ress</w>
wär tige</w>
ru p
Belgi en</w>
tr ying</w>
Umwel tsch
Mär kte</w>
oper ators</w>
consu mption</w>
pro to
Sch weden</w>
rei bt</w>
r i</w>
N um
gener ally</w>
Sec ondly</w>
pra k
s agt</w>
h a</w>
V il
G N
vermei den</w>
Hum an</w>
G as
specific ally</w>
comp ared</w>
Un abhängi
Strateg y</w>
peri o
6 5</w>
produc ers</w>
tec tion</w>
recogni tion</w>
f el</w>
Fle xi
t y
el ement</w>
Analy se</w>
so- called</w>
inn er</w>
ima ges</w>
3 ,
W er</w>
Fo to
m ie
S O
Berichterstat terin</w>
tar gets</w>
Eis en
difficul ties</w>
T -
pre -
Pre sident
D e</w>
Wh y</w>
gar den</w>
R ed</w>
br auch</w>
Rom a</w>
fac ing</w>
c oll
strateg ie</w>
D enn</w>
medi um-
eng ine
conf ig
S ign
N G
vor aus
moder ne</w>
Fre m
est er
al d</w>
Produ k
Bulg aria</w>
wettbewer bs
Qual itäts
si vely</w>
sen den</w>
k ennen</w>
g ei
z y
te sts</w>
ha ft</w>
Betri ebs
or g</w>
hoch wer
s le
Switzer land</w>
eli min
pen sion</w>
com fort</w>
tra ck</w>
möglich st</w>
govern ance</w>
Har mon
wor ten</w>
ti ef
Afri ka</w>
exten sive</w>
visit ors</w>
jewei ls</w>
b as
x es</w>
4 9</w>
genann t</w>
wal king</w>
tu red</w>
ge grün
s anc
r al</w>
automati sch</w>
Kün st
is tische</w>
allgem eine</w>
Dol lar</w>
o ber
frei heit</w>
ci ans</w>
an gt</w>
Kommunik ation</w>
k am
comp ly</w>
Pressem it
pr is
Besu ch</w>
w ood</w>
Er stens</w>
Bo ard</w>
Fischer ei</w>
Char ak
1 2.
wor th</w>
comb at</w>
Leist ungen</w>
tig ten</w>
At lan
H or
absol utely</w>
Al p
comp la
dra wn</w>
fa vo
erinn ern</w>
auf s
An gesichts</w>
laun ched</w>
f und</w>
Mi ddle</w>
Gr and</w>
du ce</w>
Barro so</w>
do wn
b on
k ü
a vi
Ver gleich</w>
T elek
G ast
mo bil
Schwei z</w>
th -
E l</w>
candi date</w>
tig te</w>
V ier
st one</w>
ru fen</w>
ph en
men u</w>
ic a</w>
eu /
Feri en
wer ke</w>
po l</w>
off ici
enha gen</w>
degre e</w>
ü t
wär en</w>
Ro oms</w>
C ul
econom ies</w>
Au str
b ritan
I st</w>
pres ence</w>
8 -
ro m
umfassen de</w>
S S
sekre tär</w>
c ore</w>
politi scher</w>
Ges ell
own ed</w>
is tics</w>
crimin al</w>
be ob
arran gements</w>
rä ger</w>
we ak
Nahr ungs
Beri chte</w>
St ellen</w>
wa gen</w>
Voraus setzungen</w>
0 s</w>
Dan n</w>
L ag
lich em</w>
Ere ig
ber n</w>
ro s</w>
Richt linien</w>
Afri can</w>
func tions</w>
ear lier</w>
reco very</w>
erle i</w>
x -
mo del
h our</w>
a p</w>
Koh ä
es tim
est en</w>
N un</w>
Ar ten</w>
aktu elle</w>
announ ced</w>
Con t
n ischen</w>
T en
Comp uter</w>
letz t</w>
E ach</w>
B ec
I II</w>
reg ister
bit ten</w>
ra ise</w>
it a</w>
NAT O</w>
zu folge</w>
gew and
pa in
ga in</w>
Justi z</w>
Bem erk
ästin ens
Unternehmen s
jec ted</w>
m at</w>
steu er
lie fert</w>
Verpfli chtung</w>
Entschließ ungs
invest ments</w>
8 00</w>
T em
ly mp
Spiel er</w>
S em
str ö
fo unded</w>
Par tei</w>
vo ice</w>
promo tion</w>
compon ents</w>
0 7</w>
K enn
beg an</w>
appro xim
dar stellen</w>
be hand
Hom epage</w>
mög liche</w>
lar ger</w>
de vi
Auf nahme</w>
Em pf
aussch uss</w>
W äh
richt linie</w>
Land wir
läu ft</w>
0 8</w>
Ter min
de dic
entschie den</w>
IS CH
sch rän
Mittel n</w>
fail ure</w>
power ful</w>
rec ord</w>
Im mobili
install ation</w>
feat ure</w>
d uty</w>
Fu ß
zei chen</w>
st res
bor n</w>
Jo urn
Ge währ
A P</w>
samm lung</w>
So ft
I mp
Li z
grap hic</w>
bi en</w>
Regel ungen</w>
wh om</w>
compati ble</w>
en des</w>
Ih res</w>
I A</w>
ex port</w>
Her stellung</w>
im migration</w>
sch li
Beschl uss</w>
Über prüfung</w>
tem perat
Kap it
rei ber</w>
jüng sten</w>
Kin dern</w>
ap par
verfol gt</w>
pro pose</w>
In halte</w>
ar tigen</w>
quali fizi
lear ning</w>
S eh
n ütz
.. ..</w>
gelö st</w>
Ver änderungen</w>
zu ständigen</w>
territ ory</w>
automati cally</w>
ur ban</w>
enti t
Ein wander
An trag</w>
4 6</w>
9 7</w>
ah ead</w>
re chten</w>
kar te</w>
be coming</w>
Gen ehmig
Sp a
genehmig t</w>
K las
B ahn
President -in-
Wieder auf
ff s</w>
swi mming</w>
pat h</w>
lo ve</w>
Joh n</w>
l ück
ic o</w>
Mo st</w>
Überein kommen</w>
g rie
even ing</w>
z ing</w>
Ver tri
we ap
zentr ale</w>
at z
em erg
adv ant
Infra struktur</w>
Ide e</w>
S ant
low ak
Groß britan
evi dence</w>
Pro duc
k -
an ci
si eren</w>
zu gän
St ation</w>
your self</w>
gele gen</w>
ex pl
proper ly</w>
si des</w>
al tung</w>
konzentri eren</w>
er ör
aus gewo
L eute</w>
President-in- Office</w>
Kar te</w>
Agen cy</w>
Fun ktionen</w>
übri gen</w>
ge stellten</w>
h und
tour ist</w>
tal king</w>
C yp
freu en</w>
3 7</w>
A ir</w>
O T
Anwen dungen</w>
Komp on
sc en
Kap ital
Ber ücksich
e. g.</w>
pri or</w>
j eg
le m</w>
S Q
Ch ance</w>
al t
O lymp
Tur k
Komp et
benutz t</w>
ver lei
sug ge
et c.</w>
A U
bal anced</w>
no t
Cyp rus</w>
Auf bau</w>
flexi bility</w>
Europe ans</w>
ung spolitik</w>
war m</w>
consider ation</w>
mon etary</w>
f ant
Archit ek
sch lagen</w>
form at</w>
Hung ary</w>
Vic e-
Kri eg
p assung</w>
kulturel len</w>
is o
bereit et</w>
gen eti
en for
Ver sicher
teil weise</w>
er enden</w>
erfol gen</w>
a y
bar ri
3 8</w>
Ob jek
Mad rid</w>
buil dings</w>
Somm er</w>
Industri e
ar ity</w>
f and</w>
v ac
Dis krimin
ck ed</w>
v es
lich erweise</w>
wan ts</w>
tz dem</w>
con soli
Nation al
hab it
gemein sam
Co sta</w>
cel eb
us h
sha red</w>
Rumä nien</w>
französ ischen</w>
sit ting</w>
j et
dis h</w>
cl ari
p sy
gesell schaften</w>
zäh len</w>
hi li
agen cies</w>
n om
Vol k</w>
contin ues</w>
pp e</w>
el te</w>
Po ten
H ause</w>
rah men</w>
ge wal
C E</w>
C he
P aper</w>
Re gel</w>
as yl
Slo v
nach ten</w>
t our</w>
Heraus forderung</w>
is ely</w>
an lagen</w>
Gu i
s and
mu si
w on
la gs</w>
Schl üssel
u tions</w>
gel angen</w>
o vi
internation aler</w>
contro ls</w>
Tre ffen</w>
vorgeschla genen</w>
tel eph
Entwick lung
d in
conv inc
.europa. eu/
spiel t</w>
Mal ta</w>
ak tivi
z entrum</w>
m ischen</w>
Su ch</w>
lin ed</w>
w and</w>
au ßer</w>
War en</w>
Au th
speak ing</w>
fi xed</w>
y al</w>
tiv ität</w>
le y</w>
cri pt</w>
zieh ung</w>
us h</w>
ent weder</w>
Vorsit z</w>
Tsch ech
ad o</w>
eh ol
pl ying</w>
hän gt</w>
ge plan
fig ur
Her steller</w>
glau ben</w>
beteili gt</w>
sat ell
to t
d eine</w>
ha ften</w>
breit ung</w>
bi eter</w>
app lies</w>
dis p
T y
jäh rigen</w>
gan g
def ence</w>
ri es</w>
out come</w>
ev ision</w>
Produ kt</w>
cal cul
Prior ität</w>
u red</w>
w asser
ven ue</w>
Vorsit z
Stra ßen
P S</w>
0 3</w>
Fra mework</w>
k n
g as
r en</w>
Mich a
selbst verständlich</w>
purch ase</w>
m as</w>
ar ch
Na cht
Berücksich tigung</w>
infrin gement</w>
Fl or
Stand ard</w>
kun fts
ko ordin
Spra chen</w>
5- 0
per manent</w>
ti erung</w>
r ist
Po st
Bil dungs
stu dies</w>
v ent</w>
V ari
ter race</w>
Wi ch
' re</w>
vo tes</w>
W ar</w>
un ge</w>
mati c</w>
o therwise</w>
member ship</w>
ec ke</w>
gen des</w>
ver se</w>
Pl en
Eff izi
üs sen</w>
m icro
S he</w>
facilit ate</w>
easi er</w>
kl are</w>
fres h</w>
Zei chen</w>
em o
clos er</w>
signific antly</w>
geeig net</w>
bestä tigt</w>
k ategorien</w>
er fahren</w>
sur v
weiter er</w>
el se</w>
w in</w>
Sum mit</w>
Stra ße</w>
respec tive</w>
Einfl uss</w>
3 9</w>
künf tig</w>
ge halten</w>
star ke</w>
Hal tung</w>
w ent</w>
su m</w>
b ü
differ ences</w>
ag no
t abled</w>
scre en</w>
aus wärtige</w>
en heit</w>
wel comes</w>
bek räf
Belar us</w>
condi tion</w>
Maß nahme</w>
par ag
ließ en</w>
connec ted</w>
f are</w>
Zy per
O m
Christi an</w>
er stellt</w>
car s</w>
moder n
la id</w>
Zun ächst</w>
exclu sive</w>
Su che</w>
Gre ek</w>
War um</w>
at o</w>
mut ual</w>
sum mit</w>
mechan ism</w>
co ff
F A
ei cher
ati n</w>
W ol
ma r</w>
eval uation</w>
ed ings</w>
ab geschlossen</w>
For mu
vol ler</w>
man i
differ ence</w>
DV D</w>
zu ver
ga ve</w>
immedi ate</w>
e ds</w>
Swis s</w>
For t
alle y</w>
sub si
Gleich zeitig</w>
vol un
ati schen</w>
zu letzt</w>
Risi ken</w>
Ira k</w>
pre sidency</w>
fur n
exerc ise</w>
en en
4 2</w>
än den</w>
c ra
j ene</w>
wir kt</w>
mit ten</w>
5 5</w>
f assung</w>
ho ffen</w>
Pak istan</w>
ö k
ent sprechen</w>
P L</w>
e ding</w>
Au gen</w>
adv anced</w>
fu g
her z
Ab kommens</w>
unabhängi g</w>
a g</w>
Ni cht</w>
bin ding</w>
p el
Sicher heit
4 3</w>
I ris
am ing</w>
un be
l -
ch ron
qual it
erwäh nt</w>
ha fte</w>
en ess</w>
an spru
Tran spor
wh ite</w>
ge fördert</w>
fig ures</w>
de aling</w>
defin ition</w>
UN G
pre fer
ent stehen</w>
Au di
ni a</w>
Sto ck
Dienst leistungs
af ter
in side</w>
im m
UN D</w>
Be denken</w>
Grund satz</w>
vers al</w>
em bly</w>
har d
ho sp
si chts
we gung</w>
fol lows</w>
Vorbereit ung</w>
spiri t</w>
al lowing</w>
r ul
gerä um
elec tion</w>
De fin
Grund sätze</w>
A chtung</w>
J ust</w>
au ff
n ungen</w>
akzep tieren</w>
nat ur
pho to</w>
hin weisen</w>
M EN
E T</w>
Stat us</w>
B ru
thous ands</w>
Re port</w>
progra ms</w>
ben den</w>
wi der</w>
Wan n</w>
fic ations</w>
en er</w>
Arbeits losigkeit</w>
Sit z
län e</w>
Ak te
w on</w>
cle an
lä ss
l as</w>
k op
dec or
Finan zen</w>
- F
8 5</w>
c e-
Ver stän
thre at</w>
prec isely</w>
wron g</w>
gro unds</w>
ordn ungs
it ems</w>
Invest ment</w>
Les ung</w>
actu al</w>
ini tial</w>
wat ers</w>
S co
schön e</w>
Disk us
eng l
inform ieren</w>
i ze</w>
en det</w>
den k
De fiz
As sozi
beauf trag
Tei le</w>
spezif ischen</w>
Frankfur t</w>
ack no
f ers</w>
Communic ation</w>
exac tly</w>
auf merk
fest gestellt</w>
jähr lich</w>
combin ed</w>
gen ü
Pf lan
Fre u
V ir
cour t</w>
pre vention</w>
Jahr zeh
Famili en</w>
re ise</w>
ei l
Währ ung</w>
fre ue</w>
angebo ten</w>
ander es</w>
ch mal</w>
We ch
regel n</w>
intro duce</w>
gele istet</w>
Kon troll
da gegen</w>
coll abor
tradi tion</w>
0 er</w>
and ing</w>
gra de</w>
V -
län dischen</w>
sth af
Iris h</w>
Fern seh
Luxem burg</w>
führ er</w>
ge fordert</w>
peac eful</w>
An passung</w>
asyl um</w>
geo graph
achie ving</w>
Un der</w>
a des</w>
stei gen</w>
electri city</w>
medi c
form al</w>
Spe zi
spe ech</w>
aussch usses</w>
profi tieren</w>
pleas ant</w>
acc ur
Ungar n</w>
Ak tionen</w>
comple ted</w>
govern mental</w>
mitt l
S port</w>
war ten</w>
ordin ary</w>
Unter schie
G ü
1 00
mo bility</w>
m ari
Mit te</w>
haup ts
führ enden</w>
sp ending</w>
por ting</w>
un sten</w>
Famili en
Zim mer
guarante es</w>
ell s</w>
di mension</w>
Empfeh lung</w>
Da vi
Sor ge</w>
sp end</w>
Croati a</w>
füh l</w>
th u
num bers</w>
di a</w>
öff nen</w>
in form</w>
En d
urspr üng
ex tra
Fin land</w>
erheb lich</w>
en e
räu me</w>
stat ements</w>
lin ge</w>
wel cher</w>
Meer es
C le
chan ging</w>
unterschie dliche</w>
bu y</w>
a ge
Th ir
se ek</w>
funktion iert</w>
Kro ati
L -
.e .</w>
tran si
besser en</w>
neh m
Di mension</w>
gan gs</w>
K ab
co- operation</w>
Men ge</w>
S un
O ther</w>
K yo
R oh
proce edings</w>
- -</w>
h ne</w>
di ty</w>
gewi cht</w>
betra chtet</w>
Ver ring
happ en</w>
0 6</w>
no ted</w>
gestal ten</w>
p .
um welt
ein iger</w>
ran gi
ambi tious</w>
Fil m</w>
sa ve</w>
m ü
Frie dens
vis ed</w>
tol er
mark t
Stim me</w>
Kap az
ben e
ch -
Min dest
äl fte</w>
t asks</w>
di ge</w>
aus drücklich</w>
individu als</w>
ph il
0 5</w>
n ation</w>
go als</w>
dan k</w>
Con su
oper ational</w>
ass es</w>
I ma
erneu er
n y</w>
mitg lie
zus timmen</w>
benutz en</w>
plann ed</w>
pre ise</w>
wonder ful</w>
ri es
reason able</w>
represent ed</w>
näch ste</w>
vor geseh
umfassen den</w>
Or d
at ti
On ce</w>
struc tion</w>
R ad
Bet rieb</w>
s lo
appro val</w>
Slo ven
s ale</w>
lä gen</w>
Am ts
se em</w>
beha vi
Mil it
rich tigen</w>
ras ch</w>
betre ffen</w>
kli cken</w>
Bre ak
mi um</w>
teleph one</w>
ro man
il -
alle l</w>
Agent ur</w>
consi ders</w>
199 1</w>
gew innen</w>
Pak et</w>
appe ars</w>
Th en</w>
S ur
F -
. org</w>
pos sibilities</w>
fac tors</w>
Er höh
y s
Kun st</w>
C at
a gen</w>
sp ent</w>
för der
campa ign</w>
al ty</w>
St atisti
ad vice</w>
S .
gen er</w>
met res</w>
tr e</w>
p ak
register ed</w>
inst ance</w>
Zah lungs
Z eiten</w>
Prü f
zi erung</w>
fel low</w>
Mod ell</w>
ens wür
gegenwär tigen</w>
wan del</w>
sch lag</w>
istr ation</w>
grie ch
mit einander</w>
del egation</w>
Mitglie dern</w>
verstär kt</w>
O P
bes itz
auf t</w>
str ong
D än
tic les</w>
i .e.</w>
car ds</w>
Stra f
be qu
g liche</w>
heb ung</w>
be ds</w>
rel ate</w>
form ed</w>
Web seite</w>
cam era</w>
Be ob
B est</w>
ti se</w>
ver sorgung</w>
D on
Bulg arien</w>
ol a</w>
größ eren</w>
D S
A si
tex tu
Y u
För der
struc turing</w>
Region al</w>
Wir kung</w>
in spec
g la
Strategi en</w>
berei che</w>
quo te</w>
I B
sa w</w>
s letter</w>
Ges etz</w>
Sit u
Ch em
m äch
ess or</w>
For derung</w>
tä t</w>
reg ister</w>
continu ing</w>
technologi cal</w>
Vice- President</w>
ma ßen</w>
einf ach
thin king</w>
6 00</w>
o g
For men</w>
ch ung</w>
über prüfen</w>
eu ch</w>
.h t
fir m</w>
ci ous</w>
M ess
bre ak</w>
Großbritan nien</w>
w om
Pressemit teilung</w>
Wis sen</w>
institu tion</w>
Di alo
zwei fel
ec .europa.eu/
E ur
kon tin
dien st</w>
t ür
bet ont</w>
Re de</w>
inter vention</w>
li e</w>
Indi en</w>
deli ver</w>
es sive</w>
fi ci
seas on</w>
Intern ationalen</w>
nachhal tigen</w>
spezi ell</w>
Vide o</w>
tru m</w>
enti rely</w>
speci es</w>
ent sch
trä ch
Cu st
win ter</w>
con ten
I I
Bec ause</w>
dest ro
d é
Kan di
pos al</w>
je derzeit</w>
Represent ative</w>
N ame</w>
H T
T au
medi zin
Glob alisierung</w>
1 1.
mechanis ms</w>
erklär en</w>
benö tigt</w>
appoin ted</w>
sug gest</w>
fa iled</w>
monit or</w>
T an
zäh lt</w>
6 4</w>
j ah
D ra
D ut
pro spec
e z</w>
Lo g
schlä gt</w>
ger ufen</w>
tern e</w>
sicher lich</w>
cli ent</w>
Verring erung</w>
request ed</w>
J etzt</w>
Ma ße</w>
Bedürf nisse</w>
dau er
Bal kan
ul l</w>
woh ner</w>
fäl len</w>
exten ded</w>
ehr te</w>
verbun denen</w>
Ju gen
vul ner
danger ous</w>
T est
des i
H ome</w>
po st</w>
strong ly</w>
l eng
O ut
Ur spr
ern sthaf
Micha el</w>
parlia mentary</w>
model s</w>
I D</w>
Ak ti
sci ence</w>
N O
consist ent</w>
spra ch
ur gent</w>
P hili
säm tliche</w>
erh ält</w>
Tit el</w>
stim me</w>
in ci
er stellen</w>
addres sed</w>
genann te</w>
ek te</w>
rec eption</w>
avail ability</w>
besu chen</w>
Z wis
er b
durch aus</w>
sel ect</w>
H is</w>
bilater al</w>
S we
is ine</w>
ück s
Tä tigkeiten</w>
ä den</w>
eval u
on e-
rap id</w>
adv ance</w>
func tioning</w>
emplo yed</w>
Verhältn is</w>
li a</w>
inform iert</w>
bre ite</w>
kit chen</w>
P eter</w>
Soft wa
Zwei fel</w>
Universit ät</w>
E ver
schri ft</w>
sequ ently</w>
per spective</w>
men ted</w>
genu ine</w>
deta il</w>
occu p
http:// ec.europa.eu/
h oriz
hin gewiesen</w>
neigh bo
eri gen</w>
behör de</w>
aufge fordert</w>
gew ün
applic able</w>
cor respon
favo ur
Is land</w>
wle d
Rats vorsit
at ur</w>
posi tiv</w>
Gre at</w>
attrac tive</w>
M S</w>
ob tain</w>
h aus</w>
charac ter</w>
el e</w>
EA N</w>
bru ch</w>
sto red</w>
Unter kategorien</w>
Sing le</w>
Asy l
wh ere
Austri an</w>
U l
he ar</w>
Untern eh
Ab schließend</w>
A partments</w>
lim its</w>
haupts ächlich</w>
Vi enn
spac ious</w>
Den noch</w>
re member</w>
la w
vor liegenden</w>
ar ticle</w>
Proble men</w>
Europä er</w>
li an</w>
V AT</w>
ut ed</w>
ein setzen</w>
sub- categories</w>
o w
n un
Ar gu
defic it</w>
P ic
E V
d ance</w>
be zogen</w>
Fest legung</w>
wel t</w>
4 1</w>
gewähr t</w>
grund sätz
te u
politi cs</w>
erleichter n</w>
sol cher</w>
be comes</w>
Palestini an</w>
y e</w>
entit led</w>
char ged</w>
Kom ple
E duc
gi ble</w>
W es
seri ously</w>
vorhan den</w>
ou l
da p
particip ants</w>
fi l</w>
tain ment</w>
combin ation</w>
Sal z
ci vi
vorsch lag</w>
vis ory</w>
th i
C H</w>
ag ne</w>
bet onen</w>
ho st</w>
gr enzen</w>
elegan t</w>
cover s</w>
Par ti
Sch ri
pas st</w>
ad ul
aff ec
tel ef
en ables</w>
Mittelme er
bri tischen</w>
da cht</w>
Städ te</w>
s eiten</w>
exist ence</w>
experi enced</w>
fü gt</w>
con dem
Stell ung</w>
statt finden</w>
gegenwär tig</w>
k on</w>
Ko rea</w>
h im
ge zogen</w>
rap h</w>
jo urn
A .</w>
Den mark</w>
sp unkt</w>
Dritt ländern</w>
ange zeigt</w>
Po li
par te
f low</w>
spezif ische</w>
Ele mente</w>
C S
enst er</w>
Deut sche</w>
9 3</w>
typ ical</w>
aspec t</w>
Pro vin
For derungen</w>
indepen dence</w>
ne ar
E CH
su r</w>
identi fied</w>
claim s</w>
zep tion</w>
wen igen</w>
ut t
n ar
isch em</w>
lau t</w>
f ach</w>
zi gen</w>
er er</w>
en -</w>
stoff en</w>
un less</w>
bezieh ung</w>
M EM
adverti sing</w>
A F</w>
D er
fe der
struktur en</w>
schwieri g</w>
b ahn</w>
EU- Mitgliedstaaten</w>
hous es</w>
datab ase</w>
pic ture</w>
Emis sionen</w>
or der
erhöh t</w>
a dem
ro o
li ghts</w>
dise ase</w>
ro ll
gr ö
Bo th</w>
tel evision</w>
lan s</w>
M eter</w>
m o</w>
lit er
ES S
is sen</w>
O li
L ou
Erklär ungen</w>
il lu
wen det</w>
on ed</w>
dür fte</w>
wel com
inten ance</w>
cust oms</w>
man age</w>
sho wer</w>
ziel e</w>
ver hältn
iz ed</w>
devi ces</w>
s co
Ak tu
M un
Effizi enz</w>
Re form
L O
er geben</w>
Be darf</w>
s i</w>
0 4</w>
rele ased</w>
R ou
3 7
ber eiten</w>
renew able</w>
eh t</w>
comm unities</w>
Er war
woll te</w>
perf ec
u .
h aus
Res ol
quali fied</w>
Ch am
er leben</w>
C er
programm s</w>
L im
sensi tive</w>
ra il</w>
prep are</w>
rail way</w>
lich ten</w>
laun ch</w>
cor porate</w>
lea der</w>
f igh
Pro tection</w>
Institu te</w>
An lagen</w>
contr ary</w>
op position</w>
T A</w>
stark en</w>
viel fäl
Unternehmen s</w>
co her
tel ec
bei zu
mach ines</w>
elec ted</w>
lie ben</w>
Stru c
x e</w>
an ische</w>
Risi ko</w>
reli able</w>
re al
decisi on-
R -
bring ing</w>
Leist ung</w>
cour ses</w>
ester day</w>
Viel zahl</w>
Erhöh ung</w>
Des ign
transl ation</w>
H älfte</w>
geschütz t</w>
fo ur
pol lu
em an
con tain</w>
Haushal tsp
m ier
bil dungs
ü hren</w>
pl ätze</w>
nah me
Fäl le</w>
am e
las h</w>
Spe zial
Ni veau</w>
c amp
B rit
fu n</w>
ev a</w>
e ar</w>
dis play</w>
mitt lung</w>
tä glich</w>
up date</w>
E IN
Liber alisierung</w>
lös ung</w>
Fortsch ritt</w>
ge prüft</w>
Un fortunately</w>
cont acts</w>
Po si
F ood</w>
refuge es</w>
ein richtungen</w>
welcom ed</w>
t old</w>
men ts
Sp a</w>
Bestand teil</w>
Ö l
est ate</w>
on ien</w>
o re
deut sche</w>
f em
b un
zu ständige</w>
un zu
führ ungen</w>
el ing</w>
H ab
wa it</w>
k ern</w>
st ac
vehic le</w>
o o</w>
ein gehen</w>
Install ation</w>
mark ed</w>
den noch</w>
contrac ts</w>
Aspek t</w>
stä d
fu el</w>
en ni
Er wer
st ein</w>
it age</w>
Lei der</w>
Schi ff
Glob al</w>
distri ct</w>
pf en</w>
con ci
gegrün det</w>
dor f</w>
conduc t</w>
r ying</w>
be ziehungen</w>
cu isine</w>
k as</w>
Ele c
Re li
Dän em
R ent
rie be</w>
1 000</w>
boo ks</w>
ar ily</w>
ven ts</w>
ausreich end</w>
kon struk
Stu die</w>
k le
betro ffen</w>
Erzeug nisse</w>
ste el</w>
oblig ation</w>
M es
L ast
m utz
care fully</w>
zu ständig</w>
organis ationen</w>
Comm on</w>
tion ally</w>
t form</w>
finanzi ert</w>
Abgeord nete</w>
son sti
der i
attemp t</w>
er scheint</w>
inter ven
e quality</w>
fir e</w>
a chtung</w>
be gan
be haup
Pres se
über nachten</w>
pp er</w>
call ing</w>
A V
Au gen
A no
Nor men</w>
gesch rieben</w>
requ ests</w>
erfol g
zug unsten</w>
Hin der
p hr
gesch ehen</w>
Op en</w>
s li
ing u
fizi ert</w>
fre ut</w>
b us
V e
verkehr s</w>
pre is</w>
determin ed</w>
resul ting</w>
Schwer punkt</w>
Ide en</w>
Beru fs
plat form</w>
ann t</w>
Schla f
Kon fer
T ru
über tragen</w>
demokrati sche</w>
omm unik
frau d</w>
C olle
4 7</w>
grö ßer
f ak
et ten</w>
Stre et</w>
accoun ts</w>
Mo un
Besu cher</w>
sex u
aufmerk sam</w>
Teil nahme</w>
impro vements</w>
nam es</w>
Dru ck
sti mul
disku tieren</w>
res ort</w>
Gener ation</w>
Ori gin
erforder t</w>
be t</w>
PD F</w>
g ä
Ad ministr
Aktionsp lan</w>
sicher stellen</w>
schi ed</w>
coff ee</w>
bo l</w>
pla ys</w>
bekan n
ho t</w>
B R
hi elt</w>
W ür
E X
mo tor
Ko oper
hal tet</w>
Be g
as si
L atin</w>
Comp any</w>
Gar ten</w>
stor age</w>
rä gen</w>
regel mäßig</w>
descri bed</w>
jo ur
S m
M aria</w>
Ver öffent
Co operation</w>
confir med</w>
Go d</w>
G ri
ver eig
ex emp
I K
f elt</w>
w ater
w ishes</w>
per c
im possible</w>
rel ativ</w>
M ak
Grün de</w>
wichtig ste</w>
feh l
u .</w>
Über nahme</w>
fähi g</w>
E Z
te sting</w>
st öß
em als</w>
Unabhängi gkeit</w>
ent re
h .</w>
big gest</w>
neh mern</w>
k aufen</w>
br and</w>
as ing</w>
G az
g barkeit</w>
sub stances</w>
gelten den</w>
Aus land</w>
strategi es</w>
wachst um</w>
I C</w>
C D
Jahrhunder ts</w>
prepar ation</w>
Diskrimin ierung</w>
respon sibilities</w>
er o</w>
compens ation</w>
sicher ung</w>
L E</w>
propos es</w>
Sch ön
s outh</w>
e ß</w>
Flexi bilität</w>
ü nen</w>
unter st
humanit äre</w>
jun ge</w>
Sk i
Eng land</w>
gran t</w>
d ation</w>
ab sich
inten tion</w>
re structuring</w>
si erung</w>
Kon trol
ge gangen</w>
exten d</w>
Gol f</w>
Viel en</w>
reich ung</w>
Klima wandel</w>
zu vor</w>
S eine</w>
dedic ated</w>
lan gt</w>
am eter</w>
Finn land</w>
Ri ch
C lick</w>
amp i
pr int</w>
industri es</w>
ß te</w>
un eingeschrän
do c
ü ben</w>
mis s
bes ei
des er
Wh ite</w>
Auf grund</w>
j ahr
beträ cht
tru ly</w>
über all</w>
ne -
wahr en</w>
2 29
Priv ate</w>
verabschie det</w>
fest stellen</w>
regel mäß
zufrie den</w>
al ter
mig rants</w>
medium- sized</w>
ar ten</w>
Teil nehmer</w>
n den</w>
sen sus</w>
9 2</w>
ch em</w>
ad ed</w>
m uni
Emp loyment</w>
f ei
situ ations</w>
glob ale</w>
Ar z
ta il</w>
k ept</w>
her gestellt</w>
approxim ately</w>
wa iting</w>
erfol grei
ung sin
tri p</w>
restric tions</w>
for get</w>
P ass
aus führ
it z</w>
great est</w>
G ran
trä gen</w>
so bald</w>
acces sible</w>
back ground</w>
prim ary</w>
Er hol
To des
Ges i
ill ing</w>
antwor ten</w>
Lin ks</w>
mo ving</w>
Fun ds</w>
zah lung</w>
bud s
Wel che</w>
Min istry</w>
Moder nis
ver tei
M ehr</w>
j ungen</w>
garanti ert</w>
K ör
F eu
ein ger
him self</w>
Kom bin
tax ation</w>
A rea</w>
dan ach</w>
B is</w>
s an
C y
de ad
Ver letz
ver lassen</w>
On line</w>
ph en</w>
or ders</w>
ir y</w>
San ktionen</w>
ta il
be zeichnet</w>
grat u
co s
ac tiv
u si
Spec ial</w>
su che</w>
reg istration</w>
out standing</w>
Am bi
gh t
con tained</w>
Wor te</w>
V ie
de h
all -
ti ver</w>
stat ten</w>
sat zes</w>
el er
sk o
An rei
ver trau
be kämpfung</w>
Dat a</w>
Ern ähr
me l</w>
mand ate</w>
I V
v e-
Fä higkeit</w>
Tex te</w>
M erk
pass ed</w>
S ar
Ano ther</w>
ing ton</w>
Dut ch</w>
4 ,
ma intenance</w>
Telek ommunik
architec ture</w>
any one</w>
E H
Au to</w>
re isen</w>
se ven</w>
identi fy</w>
for th
Vertei dig
f ly</w>
Zivil gesellschaft</w>
spra chen</w>
R ome</w>
au stausch</w>
my self</w>
Lauf e</w>
sequ ent</w>
vern ünf
D ub
ve get
ob stac
del eg
Ver sch
hand s</w>
A C</w>
invol ving</w>
Haus es</w>
ast s</w>
su ite</w>
ri ver</w>
G an
hel ping</w>
Zah len</w>
Jo int</w>
d t</w>
Davi d</w>
issu ed</w>
p he</w>
produ ktion</w>
komp li
S ehr</w>
etz ung</w>
ein ander
ar en</w>
gel assen</w>
fir ms</w>
fil l</w>
Dien st</w>
Turk ish</w>
Reak tion</w>
th or
G U
Fo undation</w>
Com pu
Vereinbar ungen</w>
wissen schaftlichen</w>
kün fte</w>
safe gu
Sta at
sch we
Vienn a</w>
mittel s</w>
kti ken</w>
Fun da
L ast</w>
ser n</w>
Mon at</w>
Is lam
Con tro
gel ungen</w>
K er
g ü
aff ect</w>
photo graph
dr än
t as</w>
nö tig</w>
se eing</w>
gui de</w>
moder nis
seek ing</w>
2 4-
Fir stly</w>
str onom
Educ ation</w>
convinc ed</w>
Mobil ität</w>
n d</w>
län ger</w>
medi um</w>
li ation</w>
Sant a</w>
Finanzi erungs
f ro
ass ist</w>
Au stausch</w>
exp an
Kroati en</w>
fer tigt</w>
sch em
iz ation</w>
Kom fort</w>
einzi gen</w>
Li thu
p et
Se e
Break fast</w>
absolu te</w>
el a</w>
cho sen</w>
Tei len</w>
vor legen</w>
there by</w>
Verk ehr
Kir che</w>
Man n</w>
S lowak
Ne vertheless</w>
Un gleich
voll ständige</w>
le ts</w>
g g
aff airs</w>
Qu ali
gel y</w>
ens wert</w>
pr ene
Vor teil</w>
sub mit</w>
re kt</w>
effec tiveness</w>
religi ous</w>
c lub</w>
U M
T our</w>
fä hig
W ander
des ire</w>
weap ons</w>
manufactur ing</w>
happ ened</w>
ar ms</w>
h inter
J a</w>
fac tor</w>
re servation</w>
t to</w>
Prin zip</w>
da d</w>
ehr t</w>
re ch
absolu t</w>
her unter
Schl uss</w>
spezi elle</w>
tran sition</w>
f ts</w>
Techni k</w>
vi c
z e
jo y</w>
be st
Seh enswür
Kli cken</w>
é e</w>
mär kte</w>
Ein fu
sti c</w>
sto ff</w>
li br
rap i
posi tiven</w>
Sup port</w>
sign al</w>
as p
angen eh
Voraus setzung</w>
un acceptable</w>
st ag
f a</w>
U T
P T</w>
y right</w>
loo d</w>
ent gegen
phy sical</w>
noti ce</w>
gro ß</w>
ex hibition</w>
sor gt</w>
AT ION</w>
den den</w>
Metho de</w>
E very</w>
al em</w>
ent y</w>
satell ite</w>
d ritten</w>
un ge
pro gres
Unterschie de</w>
Größ e</w>
Pati enten</w>
le is
e ed</w>
dis posal</w>
anci ent</w>
zusätz lich</w>
F it
R am
D ue</w>
beginn t</w>
advant ages</w>
judi cial</w>
associ ation</w>
kon trolle</w>
ti ally</w>
in struc
contribu tions</w>
Steu ern</w>
kein erlei</w>
Medi a</w>
ver anstal
leit et</w>
italien ischen</w>
r ent</w>
il l</w>
es -
Vertrags verletz
Sy m
Je der</w>
Geri cht</w>
air craft</w>
E O</w>
zer stör
tra gung</w>
siden ten</w>
ö der
200 7-
on going</w>
ne arly</w>
arri val</w>
Sat ell
stär kt</w>
hol ding</w>
gesch lossen
ur s
success fully</w>
Contro l</w>
st ood</w>
ch ers</w>
Ban k
si ven</w>
isi tion</w>
welt weiten</w>
der ship</w>
be zug</w>
Hau p
v it
recommen d</w>
emer gency</w>
proz esses</w>
Ab end</w>
n ommen</w>
be ar</w>
be an
Re chts</w>
y r
mari time</w>
enh ance</w>
dar aus</w>
Beh in
st am
über greif
Res p
Um struktur
rou te</w>
es ische</w>
ben e</w>
P C
Niederlan de</w>
Dänem ark</w>
k ö
cla im</w>
g utes</w>
ei m
bein haltet</w>
B ER
Ter rasse</w>
Rau m
multi -
can c
Wor ten</w>
Ver träge</w>
H on
hand els
char ges</w>
EA DS</w>
besch le
grund lage</w>
Th us</w>
ke eping</w>
ad or</w>
geb il
yp e</w>
sei en</w>
ei ght</w>
L ang
9 -
inten sive</w>
c au
groß es</w>
agen cy</w>
Pro di</w>
sur face</w>
geh ende</w>
Kri min
mö gen</w>
m useum</w>
kl ass
sanc tions</w>
Ju gend
w oo
ac king</w>
d ler</w>
t aus
deliver ed</w>
F lä
ein erseits</w>
Per spek
sug ges
pack ages</w>
hil fe</w>
ar i</w>
w all</w>
ef s</w>
Fol lowing</w>
Ale x
Ver b
zi al</w>
p es</w>
at ure</w>
in k
dynam ic</w>
rela x</w>
lie be</w>
fe ar</w>
gr o</w>
Net z</w>
untern ommen</w>
pollu tion</w>
persön lich</w>
Ab sicht</w>
and ed</w>
ec kt</w>
8 6</w>
An g
5 0
Hin weis</w>
enor mous</w>
Struk tur</w>
wo durch</w>
be aches</w>
W ün
zu gleich</w>
st ers</w>
wa chen</w>
m ali
fac es</w>
dec laration</w>
art a</w>
an ese</w>
f en
P hil
Nachfol gend</w>
ges chn
. 000</w>
scho ols</w>
loo ks</w>
br ings</w>
i ti
be fassen</w>
C ub
................ ................
manufactur ers</w>
ro l</w>
Bed roh
hän gen</w>
al a</w>
Besch reibung</w>
ver i
u el</w>
il ing</w>
re is
Mittel punkt</w>
C C
me ters</w>
ent lichen</w>
un able</w>
begr ün
sel l</w>
expres sion</w>
form ation</w>
del ay</w>
bur den</w>
Mom ent</w>
so vereig
si eben</w>
durch schnit
ag ue</w>
Bra zi
wei ght</w>
U L
Br enn
Schen gen</w>
w est</w>
or gt</w>
us ual</w>
poin ted</w>
tic ally</w>
nach zu
An n
par allel</w>
erheb liche</w>
SQ L</w>
S qu
re ve
tex ts</w>
an gesprochen</w>
Ereig nisse</w>
E M</w>
äu men</w>
besitz t</w>
for um</w>
Tro tz</w>
2 50</w>
Regi erung
be wäl
op pos
Nach dem</w>
techni k</w>
CO 2</w>
än derung</w>
Verstän dnis</w>
invol vement</w>
reagi eren</w>
boo king</w>
Projek ten</w>
A tom
or ds</w>
Politi ker</w>
C ast
p utting</w>
Zyper n</w>
ten e</w>
EN T
um zusetzen</w>
M ill
MEM O</w>
d ul
win d</w>
garanti eren</w>
defin i
rema ining</w>
bl ack</w>
ent ing</w>
du s</w>
bil det</w>
O pen
Entwicklungs ländern</w>
nei ther</w>
present ation</w>
dist inc
Führ ung</w>
aut onom
Re du
R et
U .
S cript</w>
Ein beziehung</w>
Ab en
wel chen</w>
amoun ts</w>
Struktur fonds</w>
mar ily</w>
la p
exten sion</w>
kürz lich</w>
k ilom
Nutz er</w>
ver fahrens</w>
f light</w>
c en
Fu ß</w>
s ort</w>
ari o</w>
wer ten</w>
du mp
categ ory</w>
T ari
Sin n</w>
Fin ance</w>
v el</w>
ate ver</w>
T al
ommen en</w>
erh äl
St off
ehemali gen</w>
B M
surro unding</w>
soli di
leb ens
Sch war
betreff end</w>
remo ve</w>
Y et</w>
kom bin
Mo tor
zip ien</w>
sm aller</w>
f ein
tal ks</w>
or am
install ed</w>
exam ples</w>
pic tures</w>
empfeh len</w>
Ham burg</w>
d al
Saf ety</w>
198 9</w>
C O</w>
organiz ation</w>
is s
M use
No te</w>
offen sichtlich</w>
pri vi
T emp
no on</w>
th eit</w>
s wit
Wissen schaft</w>
c olo
Sehenswür digkeiten</w>
nied ri
mean ing</w>
y ang</w>
communic ations</w>
recognis ed</w>
Mar tin</w>
E P</w>
ma g</w>
mi ddle</w>
empha sis</w>
Bei m</w>
reg istri
kra ft</w>
th ers</w>
wesent liche</w>
li ability</w>
Mis s
CO M
sorg fäl
mitg lied</w>
conclu de</w>
co ast</w>
en dum</w>
einfa che</w>
fi f
n ennen</w>
Ge wi
B ir
tar ge
enter ed</w>
Nach frage</w>
cent res</w>
Verbesser ungen</w>
as king</w>
Char ter</w>
Be griff</w>
steu erung</w>
pi ece</w>
d licher</w>
unter schei
angem essen</w>
e chte</w>
rep ly</w>
Constitu tion</w>
de ep</w>
ak tive</w>
Ziel en</w>
cap able</w>
Reli gi
com ment</w>
k el
al b
vali d</w>
re ck
lauf enden</w>
sk i
W ill
LA N</w>
B au</w>
gri ffen</w>
betra chten</w>
nah e
incor por
Kri tik</w>
Struc tural</w>
a ys</w>
traff i
fül lung</w>
ent ran
ar chi
decision- making</w>
min isters</w>
is iert</w>
T el
m ale</w>
er ende</w>
IS O</w>
cons ists</w>
P AR
Tra dition</w>
our able</w>
dep th</w>
Grund rechte</w>
it zen</w>
rel atively</w>
m ass</w>
bil d</w>
verl oren</w>
spre ad</w>
dri ving</w>
E hr
li ers</w>
zu legen</w>
angemessen e</w>
ren ov
Na cht</w>
um b
Techn ology</w>
Besch rän
stit utes</w>
im ports</w>
pri marily</w>
exam ine</w>
mas sive</w>
Z ur
229 -
appe al</w>
Ant worten</w>
ut h</w>
trans action</w>
so weit</w>
m ly</w>
a e
Dec ision</w>
d ah
Ti ere</w>
Man ager</w>
guarante ed</w>
la h</w>
zieh t</w>
Hoff nung</w>
An liegen</w>
wirtschaft licher</w>
tür k
an bieten</w>
Th ose</w>
dru gs</w>
St or
Democ rats</w>
I CH
ten e
ha m</w>
s se</w>
refle ct</w>
In seln</w>
f illed</w>
Downlo ad</w>
le hen</w>
er zi
zusätz lichen</w>
oll s</w>
S til</w>
wirk sam</w>
ex ports</w>
verring ern</w>
in ary</w>
langfris tige</w>
Herz eg
produ kte</w>
near by</w>
fi es</w>
but ton</w>
E gyp
G ali
Ver y</w>
cover ing</w>
at a</w>
Partn ern</w>
K O
sch ir
B S
con sensus</w>
compet ence</w>
phr ase</w>
1 st</w>
relax ing</w>
Th an
Genehmig ung</w>
tor al</w>
sh ilfe</w>
sa v
exp ensive</w>
controll ed</w>
Gu est</w>
un fortunately</w>
för derung</w>
eri a</w>
zunehmen d</w>
tion ary</w>
konkre ten</w>
Z ü
H ü
Geschäfts ordnung</w>
ang s
belie b
Auf trag</w>
re d
cl ing</w>
ste chn
län dische</w>
D adurch</w>
on al</w>
m ün
exper tise</w>
en cies</w>
dise ases</w>
anerkan nt</w>
weiter es</w>
acc o</w>
gi r
bür ger
to b
fri ed
ser ving</w>
son st</w>
sho fs</w>
eng ine</w>
erg riffen</w>
tim ately</w>
Metho den</w>
C an</w>
Arbeitsplätz en</w>
opini ons</w>
g -
off enen</w>
V an</w>
anc ing</w>
Bet ru
recht liche</w>
reach ing</w>
Intern al</w>
teil nehmen</w>
si ght</w>
Mich el</w>
Bo tschaft</w>
Cas ino</w>
A id</w>
S and
Di rek
vorsch lagen</w>
enfor cement</w>
In ner
spezi ellen</w>
on to</w>
Gegen satz</w>
Fur ther</w>
un it</w>
E ar
un anim
35 2</w>
Um ständen</w>
Fes tival</w>
gri ffe</w>
caus es</w>
col or</w>
unmittel bar</w>
and o</w>
sp anischen</w>
vis u
no tes</w>
Risi ko
fe ed</w>
pre viously</w>
att ack</w>
H ist
Om buds
An y</w>
institution ellen</w>
ho her</w>
ur g
li erung</w>
do ku
Res i
represent ative</w>
bar s</w>
ab gel
zurück zu
ut ter</w>
hö here</w>
parag raph</w>
f ting</w>
tri fft</w>
win dow</w>
breit et</w>
Sek toren</w>
Bereit stellung</w>
li t</w>
Des pite</w>
Can ada</w>
t ment</w>
tre ated</w>
lu ß
f it</w>
c les</w>
au c
Sch w
í a</w>
Vorsch lägen</w>
att acks</w>
W aff
ander erseits</w>
F lo
bereit gestellt</w>
abl ing</w>
bli oth
awar eness</w>
Arz nei
Op tion</w>
De f
iel t</w>
regel ung</w>
dienst leistungen</w>
F la
B ab
ban ken</w>
Pho to
su n</w>
rä ften</w>
bestimm ter</w>
as h</w>
An lage</w>
Fä hig
st ory</w>
Aus sicht</w>
th eti
Ko sten
unterstütz e</w>
R ob
wor fen</w>
ehr gei
tot ally</w>
ter s
foo t
er r
fore st</w>
R in
ci pl
inter face</w>
zugän glich</w>
Th om
R ein
dec ades</w>
Arbeitsp lat
tax es</w>
invest ors</w>
gebie te</w>
condi tioning</w>
Pro grammen</w>
or a</w>
ati sche</w>
zentr alen</w>
win den</w>
as sets</w>
sto ßen</w>
ateg orie</w>
lo ad</w>
Landwir te</w>
is ieren</w>
.h .</w>
4 5
g an</w>
Bus h</w>
kün st
St ei
liber alisation</w>
u e
kosten los</w>
st ations</w>
holi days</w>
ta bel</w>
her vor</w>
K r
pati ents</w>
gehö rigen</w>
v a
o f-
h n
be absich
im posed</w>
depen dent</w>
Pla yer</w>
Ur teil</w>
sat lan
attrac tions</w>
c m</w>
An bieter</w>
lea dership</w>
bezieh t</w>
Bes i
compet ent</w>
offici als</w>
ni er</w>
d den</w>
beau ty</w>
Verhand lungs
an o
Veranstal tungen</w>
ti tle</w>
Mus li
Ch il
fas hi
Re ise</w>
J er
Defin ition</w>
m ir
St art</w>
Doku mente</w>
inv ited</w>
I l
Ar gent
sol e</w>
ack le</w>
le ads</w>
comb ating</w>
verstär ken</w>
bekan nten</w>
ES S</w>
w an</w>
S ha
z -
enth al
schn eller</w>
beg lück
Euro pol</w>
sur vi
on i</w>
F T
Kontrol len</w>
An dre
Agrar politik</w>
Hoch schul
te dly</w>
squ are</w>
ac ting</w>
Hal b
Dro gen
sorg ungs
sätz en</w>
direc tives</w>
w- how</w>
fan gen</w>
Mon tene
komple tt</w>
identi ty</w>
Mitglied s
Entschei dungs
M einer</w>
sen s
St ein
posi t</w>
äu fer</w>
gem ü
seit ens</w>
ent wurf</w>
chan n
adju st
C af
n de</w>
y esterday</w>
ier ungen</w>
ra dio</w>
ad o
de vice</w>
certain ty</w>
v ar
Swe dish</w>
Spra ch
serv ations</w>
lux ury</w>
passen gers</w>
ung er</w>
ven tionen</w>
s au
führ ende</w>
Grenz e</w>
lie fern</w>
di um</w>
P L
re place</w>
dec la
D em</w>
wähl ten</w>
tri ed</w>
writ e</w>
Hil fs
außer ord
ati sch</w>
tradition ellen</w>
ti le</w>
Mär kten</w>
Kompromis s</w>
Re alität</w>
an geht</w>
abhängi g</w>
Sit z</w>
fl us
t ackle</w>
horiz on
require ment</w>
mem ory</w>
Partner ship</w>
recommend ation</w>
lat ter</w>
eh e</w>
einzel ne</w>
determin e</w>
e b</w>
Wer t
wün sche</w>
ge tr
foc used</w>
wichtig es</w>
Sch o
Ar e</w>
P S
Entwicklungs länder</w>
ban king</w>
Diskus sionen</w>
Wei ß
dire k
Ord nung</w>
op ol
ne ut
er öffnet</w>
Stad tz
ti scher</w>
par a</w>
grenz ung</w>
ar m</w>
Ob ama</w>
B ou
auf zunehmen</w>
ol der</w>
wä ch
jäh rige</w>
inst all</w>
um n</w>
oo k</w>
f än
lic ations</w>
g uter</w>
be achten</w>
ak ia</w>
arti sts</w>
Wor k
ver gleich
sub scri
no w
fin ding</w>
val ent</w>
Pau l</w>
Berat ung</w>
enst ein</w>
form ul
em m
be wegen</w>
steu er</w>
stell ungs
dis cover</w>
Allgem einen</w>
er zeug
F R
poten zi
ück en</w>
we alth</w>
Fähig keiten</w>
K aff
Fir men</w>
Eben so</w>
sel s</w>
prakti sch</w>
m 2</w>
ff er</w>
lie gende</w>
W here</w>
wirk lichung</w>
No t
aller y</w>
La ke</w>
geh enden</w>
Män ner</w>
const antly</w>
Mein ungs
un ch</w>
intel lec
Go tt</w>
ma ß</w>
wieder um</w>
blo ck</w>
d or</w>
Struktur en</w>
stri c
h ü
exc ept</w>
rau ms</w>
Sam m
O ver</w>
Ein druck</w>
me ist</w>
sto cks</w>
man gel
te es</w>
optim al</w>
i et
sem in
ch ain</w>
ak t</w>
Ge win
C urr
expec tations</w>
Fo tos</w>
wirk ung</w>
beschäf tigt</w>
indic ated</w>
mi en</w>
politi sch</w>
omm unic
T wo</w>
ch urch</w>
Wil len</w>
schließ t</w>
Er de</w>
Harmon isierung</w>
beein träch
alis ieren</w>
mom ent
an i</w>
N ice</w>
d .h.</w>
righ tly</w>
Beit räge</w>
ck er
Haupt stadt</w>
sol d</w>
residen ce</w>
be u
Beihil fe</w>
hab er</w>
ent eil</w>
rec ord
Li cht</w>
Aus bau</w>
grundle genden</w>
sprü che</w>
präsen tiert</w>
geschi eht</w>
invol ve</w>
perfec tly</w>
ati es</w>
C F
dam als</w>
einheit lichen</w>
Aut o
ori um</w>
comm un
Eisen bahn
trans fer
über ra
Materi al</w>
lar gely</w>
3 .</w>
z y</w>
ati cally</w>
ell ed</w>
Arbeits markt</w>
reit er
ir s</w>
M L</w>
F isheries</w>
r é
re mind</w>
Da y</w>
b ath</w>
wirk sam
e c</w>
Gemein same</w>
ver bo
statisti cs</w>
eck -
Qu es
sha res</w>
Be am
man chmal</w>
Anwen dungs
car bon</w>
x en</w>
nit ure</w>
In n</w>
mer ely</w>
fra gt</w>
beträ gt</w>
Sp ek
K lar
Vor gehen</w>
Nach hal
ob tained</w>
früh er</w>
ob viously</w>
c ast</w>
k la
acqu isition</w>
Charak ter</w>
Ber lin
acc ess
gel aden</w>
do s</w>
dic t
ab road</w>
de cre
Proto col</w>
ver langen</w>
Ver wirklichung</w>
E- Fraktion</w>
rel ess</w>
nor th</w>
k räfte</w>
persön liche</w>
frei wil
.ht m</w>
re den</w>
ex is
Ta i
Slo wen
at oren</w>
ex t</w>
Unter kunft</w>
ff er
and -
Ver bot</w>
Yu gosla
Musi k
ti erte</w>
beein flus
Fa x</w>
A qu
ge wählt</w>
C lu
expla in</w>
form u
M em
po st-
Arbeit sk
er läu
bri dge</w>
me at</w>
Dep uty</w>
ni c</w>
freund liche</w>
st ro
kulturel le</w>
min e</w>
Verk auf</w>
5 1</w>
west lichen</w>
in zwischen</w>
M AR
vis ual</w>
fin de</w>
R ules</w>
ge öffnet</w>
ein verstanden</w>
am ong
C ard</w>
psy ch
moun tains</w>
Bes org
phy si
mel dung</w>
ok ed</w>
f abri
Z ul
Ro yal</w>
Rechn ung
si mul
ch st
among st</w>
Ver breitung</w>
fru it</w>
al p
Sch n
16 0</w>
nun mehr</w>
In nen</w>
spoliti schen</w>
ris ing</w>
füh len</w>
H än
Al liance</w>
ö sen</w>
Ap parte
klu sive</w>
Mis sion</w>
ã o</w>
t un
V it
Bes itz
wan n</w>
l es
Gesetz gebung</w>
k el</w>
Stu dio</w>
span nen</w>
ri gi
Geg enteil</w>
berei chen</w>
increas es</w>
recommen ded</w>
ob vious</w>
Krank heiten</w>
Autom ob
über nommen</w>
event u
kl einer</w>
figh ting</w>
phil osoph
komm erzi
Pal ace</w>
weis ung</w>
sen s</w>
will ing</w>
S D
s we
geb enen</w>
Pol ish</w>
Inn en
ho l</w>
Ver halten
Beisp iele</w>
tion ality</w>
vorzu legen</w>
comp u
Alt stadt</w>
up dated</w>
O s</w>
Beschl üsse</w>
conten ts</w>
ge arbeitet</w>
allgem ein</w>
L ink</w>
un to</w>
fac ed</w>
stre ben</w>
C R
est e</w>
leh nen</w>
entwick elten</w>
Wech sel
Mi kro
Hol z
Gr unde</w>
Aus nahme</w>
lei den</w>
Exper ten</w>
hand ling</w>
ne x</w>
dis cipl
5 2</w>
lands cape</w>
dra wing</w>
7 00</w>
hon ourable</w>
S c
de alt</w>
ati ver</w>
Ge winn
P act</w>
barri ers</w>
sch te</w>
Staats an
---- ----
Milit är
Fran c
Ver halten</w>
eb enen</w>
cy cle</w>
Portu gu
Angebo te</w>
Gesprä che</w>
natür lichen</w>
durch zuführen</w>
Ne ws</w>
Entschließungs antrag</w>
sch ten</w>
entre prene
D re
Ar chi
F OR
3 6
some one</w>
führ ungs
er mu
Projek t
foo t</w>
Ameri ka</w>
protec ting</w>
Mitglied schaft</w>
st ore</w>
gew isse</w>
Grün dung</w>
n ise</w>
defin e</w>
We gen</w>
sta k
furn ished</w>
Gesch le
vorgeseh enen</w>
In don
resol ved</w>
Pub lik
resol ve</w>
läss lich</w>
Res ort</w>
la ke</w>
conveni ent</w>
Frem den
pe op
k urr
a qu
är m
a ther</w>
es sions</w>
main tained</w>
Ba y</w>
ch am
beg onnen</w>
1 20</w>
19 .</w>
setz ungs
V om</w>
Gesetz e</w>
tou ch</w>
gemein schaftlichen</w>
di men
Than ks</w>
system en</w>
Fak toren</w>
Be fug
ro krati
colleag ue</w>
Staats sekretär</w>
sou thern</w>
collec tive</w>
tur ning</w>
Ad ri
Be wegung</w>
ob ject</w>
construc tive</w>
ie f</w>
Verein fach
resp ek
experi ences</w>
d s
t ter
Sch äden</w>
stimm t</w>
shor t
ex plan
vor genommen</w>
Ex ec
rü stung</w>
Sloven ia</w>
g n
traffi cking</w>
Modernis ierung</w>
mensch lichen</w>
in flation</w>
D A
be stand</w>
Aut ob
g in</w>
hier zu</w>
UN -
W inter
Ein stellung</w>
ti s</w>
began n</w>
ein geleitet</w>
5 ,
ac tively</w>
Vorsch lags</w>
E s
disku tiert</w>
bu re
smo king</w>
bes i
viel mehr</w>
europ a</w>
S au
Kombin ation</w>
B O
pre sident</w>
kurz em</w>
vis a</w>
um p
volu me</w>
recog nise</w>
fo lio</w>
rapi dly</w>
Wissen schaft
A ID
an gewand
k ehr</w>
be stehende</w>
u. a.</w>
te ste</w>
w ah
surro unded</w>
strateg ischen</w>
Tim e</w>
n ations</w>
Über gangs
komp et
R h
ver lieren</w>
i ties</w>
gl ass</w>
Reg istri
Komm un
öst erreich
Kooper ations
wh il
extre me</w>
wel fare</w>
schem es</w>
dan ger</w>
whil st</w>
Ak tion</w>
l isten</w>
gi cal</w>
ö se</w>
sp ür
Sch nit
produc ing</w>
dat en
F as
wirk same</w>
Jav a
ur ge</w>
So zi
v ous</w>
nam ed</w>
Gol f
Erwar tungen</w>
AN D
em ed</w>
Zu stand</w>
Kon zep
wn s</w>
vor her
Verfü gbarkeit</w>
ber at
Bal tic</w>
Det ails</w>
Sonn en
Far b
t äu
Fra ktionen</w>
gh ted</w>
ein schlä
O hne</w>
' ve</w>
er tes</w>
deta illi
ba siert</w>
Verbin dungen</w>
G laub
leg ungen</w>
k einer</w>
T O</w>
qu is</w>
Zer ti
Berat ungen</w>
Tour ismus</w>
o st
m ation</w>
ol z</w>
no ise</w>
zuver lässi
lie f</w>
fi cial</w>
Re zeption</w>
ver langt</w>
ac compani
W ien</w>
y outh</w>
pl en
Mob ile</w>
ra d</w>
ex ists</w>
vulner able</w>
B at
sha pe</w>
pho tos</w>
is er</w>
stre am</w>
K i
har m
Gemein schaften</w>
heav y</w>
heal thy</w>
disast er</w>
PH P</w>
P eti
8 9</w>
hel ped</w>
akzep tiert</w>
discuss ing</w>
suff ering</w>
loc ations</w>
hel ps</w>
Lithu ania</w>
US S</w>
z in</w>
ide ale</w>
er ie</w>
Sch ule</w>
0. 000</w>
r auch</w>
C ho
isch -
de x</w>
be handeln</w>
encour aging</w>
ass ungen</w>
pleas ure</w>
ch mals</w>
berühm ten</w>
C ri
Be fore</w>
Loc ated</w>
behand lung</w>
auth enti
ameri kanische</w>
Ver trag
z ell
ass ess</w>
ver w
conduc ted</w>
An schluss</w>
multi ple</w>
be währ
as sen
Politi ken</w>
außer gewöhn
Com peti
provi ders</w>
n on
fig ure</w>
sett lement</w>
un its</w>
justi fied</w>
passen ger</w>
grundle gende</w>
ch ap
Gewähr leistung</w>
eng agi
mo de</w>
we gs</w>
Mon etary</w>
Ins besondere</w>
Pres se</w>
eben e</w>
prof it</w>
bed ing
Bu ch</w>
beteili gen</w>
er as</w>
br e</w>
sh aring</w>
P ack
Dub lin</w>
T ie
Montene gro</w>
Gesell schaften</w>
8 8</w>
g one</w>
e en</w>
dest ination</w>
. de</w>
inclu sion</w>
diver se</w>
S ter
S hi
d rei
engine ering</w>
Nah en</w>
vig ation</w>
den -
can cell
Slov akia</w>
en ergi
ung ser
Veranstal tung</w>
zi el</w>
to m</w>
beschrän kt</w>
Win ter</w>
Aus gang
P op
Land schaft</w>
pa ir</w>
far m</w>
Ge wäs
ari um</w>
erhäl tlich</w>
Pr o</w>
en ded</w>
A ct</w>
ra in</w>
streng th</w>
Zah lungen</w>
voll kommen</w>
excep tional</w>
exc essive</w>
ra y</w>
ar ance</w>
entscheiden d</w>
bal con
S par
wech sel
valu able</w>
unter zeichnet</w>
Portugu ese</w>
b ag
stak ehol
con temporary</w>
spr ing</w>
kurz fris
Daten schutz
ver hand
p ft</w>
Energi ever
7 1</w>
Mr .</w>
H en
or al</w>
si bly</w>
pres sion</w>
ar ticles</w>
A v
cht es</w>
St rom
pre is
kin ds</w>
en ger</w>
Netz werk</w>
high light</w>
gebie ten</w>
ran t</w>
ri c</w>
lok ale</w>
s ach
der artige</w>
sp ei
ser vers</w>
qu ick</w>
Resol ution</w>
w asser</w>
spac es</w>
en gen</w>
cor ruption</w>
sk y</w>
priv acy</w>
f rü
6 7</w>
D A</w>
it i</w>
J es
K e
Dar lehen</w>
bu te</w>
Politi k
ti erten</w>
er in</w>
schwieri gen</w>
k enn
s n
Ver such</w>
i res</w>
M ach
ab len</w>
UN ION</w>
prov in
estim ated</w>
Qu o
kontin u
Pu tin</w>
Stand ard
Sch a
pp en</w>
co ast
s z
N L</w>
ein s</w>
Mex i
ab sen
ur red</w>
Minister in</w>
Squ are</w>
Ser ie</w>
Jo se
elektron ischen</w>
Be ach</w>
F on
ver sions</w>
subsi dies</w>
fis her
cu rement</w>
Frühst ücks
decla red</w>
effizi enz</w>
K auf
cop y</w>
Telef on</w>
coun tr
W affen</w>
bro wser</w>
Nicht rau
Neu e</w>
Am t</w>
schn ell
regul arly</w>
fle et</w>
zusammen arbeiten</w>
web sites</w>
stra ße</w>
pro p
r uns</w>
dies el
sol ve</w>
dra mati
al ed</w>
zü ge</w>
tats äch
sec on
Kyo to</w>
ur a</w>
nä her</w>
wer fen</w>
d ritte</w>
Bra sili
trans actions</w>
te en</w>
höch ste</w>
out put</w>
ser s</w>
Stock hol
Kommunik ations
a stri
Untersuch ungen</w>
aus gesetzt</w>
stra h
projek te</w>
Sub sidi
Ru he</w>
WT O-
gest ern</w>
sustain ability</w>
H -
p our</w>
mo ved</w>
au shal
Aus fu
ei ra</w>
b om
Er wachsen
ti zen</w>
fa ßt</w>
t ative</w>
config ur
herz lich</w>
zi pl
str onger</w>
constitu te</w>
aff ir
Slowak ei</w>
Th rou
pro ve</w>
Veröffent lichung</w>
K ategorie</w>
pro ved</w>
früh eren</w>
Brit ain</w>
m ung</w>
ori a</w>
leng th</w>
is ol
an hand</w>
Vizeprä sident</w>
under taken</w>
A sh
ment ally</w>
a side</w>
ek en</w>
T wit
ziel en</w>
m än
du ties</w>
tw o-
lat t</w>
ein geb
West en</w>
dustri e</w>
Far ben</w>
re serve</w>
9 4</w>
pursu e</w>
Eink aufs
sp a</w>
neu esten</w>
L etz
occa sion</w>
acc eler
Pre mier
def ault</w>
L t
clas si
coun ter</w>
o t
Zus ätz
2007- 2013</w>
vie wed</w>
befür wor
Binnenmark tes</w>
An griff</w>
Geor ge</w>
Daten bank</w>
Be dien
ver änder
sti l
Gest altung</w>
spo t</w>
thre at
pal ästinens
Ratsprä sident</w>
hö her</w>
T ar
L ev
be kämpfen</w>
CO M</w>
Reser vi
ass ist
Gi ven</w>
speak ers</w>
tob acco</w>
g al
fahr t
Har d
5 6</w>
с т
G R
An gel
9 1</w>
Cul ture</w>
re ported</w>
itä t
mitt ler
herr scht</w>
sta at</w>
o red</w>
T ats
G -
la y</w>
b ol
F ein
E ssen</w>
tri eben</w>
H i
sp iel</w>
sch ritt
accompani ed</w>
Klima anlage</w>
For mat</w>
heu tige</w>
chem ical</w>
Sch u
oppos ite</w>
kontinu ier
Sü den</w>
La w</w>
Bet eiligten</w>
ver trag</w>
Mark tes</w>
Kris en
ab e</w>
ni veau</w>
for schung</w>
vorgeschla gene</w>
dou b
er ror</w>
main taining</w>
pro file</w>
politi cians</w>
Plan ung</w>
th e-
ter -
Ma il
ir ing</w>
equ ally</w>
Bu il
ta ste</w>
ma ga
i en
P ool</w>
ge is
DI E</w>
gol f</w>
Altern ative</w>
Sp ann
Ever y
u d</w>
Ge fühl</w>
Chanc en</w>
no chmals</w>
Po liz
pro of</w>
T EI
Fri ed
west ern</w>
Ma astri
M A
durch führen</w>
B us</w>
20 .</w>
hil ft</w>
Ven e
Ch arta</w>
sch afft</w>
b ing</w>
W ash
prä z
erinn ert</w>
bet t</w>
vor an
tt able</w>
lar s</w>
bet eiligten</w>
re jected</w>
Rau ms</w>
conc ep
organiz ations</w>
OL AF</w>
Ma z
B ör
Zus atz
T reib
sch efs</w>
el i</w>
tig ungs
genau so</w>
W ur
Ma ß</w>
7 2</w>
eri or</w>
Ferien woh
Ver brechen</w>
Net work</w>
ut ing</w>
Op tim
fe eling</w>
sch war
milli ons</w>
en de
Wirtschafts wachstum</w>
Sp eicher
Cop enhagen</w>
wirtschaf ts
Direc tor</w>
Del eg
verschieden er</w>
fa il</w>
Pra ktiken</w>
H öh
Po st</w>
B la
Vi et
Engl isch</w>
L ord</w>
5 3</w>
Sch aden</w>
terror ist</w>
depen ds</w>
War en
C l
inter es
uni versal</w>
u ung</w>
Jap anese</w>
In tel
et -
G ep
const ant</w>
Sch au
G ent
Consu mer</w>
sich ere</w>
Th eir</w>
conci liation</w>
geh and
wirk lichen</w>
tre aty</w>
Organ e</w>
K en
Dig ital</w>
K ilom
Lie be</w>
höh eren</w>
T aus
fest gelegten</w>
R und
di n</w>
Zim mern</w>
determin ation</w>
St unde</w>
Sec ond</w>
d ating</w>
den de</w>
beru ht</w>
v ast</w>
auth or</w>
re main
Verf assungs
To d</w>
f tung</w>
höch sten</w>
cre ative</w>
ar ischen</w>
Eigen schaften</w>
räu men</w>
Brazi l</w>
n on</w>
ac tors</w>
Lan gu
Ko operation</w>
zi em
atti tude</w>
G B</w>
mo tor</w>
Balkan s</w>
flo ws</w>
ist a</w>
e chten</w>
tro p
exclu sively</w>
enh anced</w>
cour ts</w>
Stoff e</w>
Fre unde</w>
wissen schaftliche</w>
den ten</w>
el -
dist or
ing er</w>
St än
f on
Tats ächlich</w>
ü r</w>
verein bar</w>
T O
stri ct</w>
ec es</w>
Lebens mittel</w>
Ad di
off ices</w>
le aving</w>
6 8</w>
sor ganis
kar ten</w>
ah nen</w>
Bes ei
Mas sen
sicher gestellt</w>
Rom an</w>
CA P</w>
dar y</w>
Al ter</w>
ursprüng lichen</w>
finan ced</w>
e f</w>
lin gen</w>
bed room</w>
Völ ker</w>
her aus</w>
ameri ka</w>
Java Script</w>
sch auen</w>
Ge ist</w>
high ligh
US D</w>
satisfac tory</w>
Kur z
G a
peop les</w>
cri ption</w>
L au
St ability</w>
th ro
histor ische</w>
Leb ens</w>
Su ch
L eu
w u
sk in</w>
schö n</w>
hil fen</w>
Stadtz entrum</w>
Dialo gs</w>
contin ent</w>
supp le
Mr d.</w>
Kon sequ
sex ual</w>
r ö
Hand eln</w>
ge teilt</w>
conflic ts</w>
Sp iele</w>
quar ter</w>
intellec tual</w>
Tra di
schätz ung</w>
mit tag</w>
f ted</w>
Gä sten</w>
Tem perat
Bet rag</w>
weit gehend</w>
ei gh
schn ei
Per s
au dio
ak tiven</w>
V ia</w>
te ams</w>
au x</w>
Wachst um
U C
Erk enntn
F ig
character istics</w>
Erhol ung</w>
organis iert</w>
Zwis chen
bedeu ten</w>
Überein stimmung</w>
invol ves</w>
zu gang</w>
it ze</w>
w us
tei lungen</w>
spartn er</w>
ar dis
Inter essen
Ser bia</w>
Mig ration</w>
ob jek
supp liers</w>
entscheiden der</w>
es ch
T om
Hand els</w>
Kör per</w>
äu me</w>
zügi gkeit</w>
Vide o
8 1</w>
si m
ed oms</w>
automati c</w>
di c</w>
Est onia</w>
bo t
y es</w>
her itage</w>
Twit ter</w>
Er füllung</w>
2 1.</w>
ro ads</w>
G M
y m
objec ts</w>
6 6</w>
ini en</w>
Umweltsch utz</w>
Kü ste</w>
La dies</w>
schätz en</w>
kno ws</w>
U. S.</w>
Sch ool</w>
for d</w>
En joy</w>
nahe zu</w>
P et
Nichtrau cher
ens es</w>
sa cht</w>
re ds</w>
gesp ielt</w>
h it</w>
Nor thern</w>
Mun ich</w>
to urs</w>
absen ce</w>
R and
wh atever</w>
re sear
chin esischen</w>
Um feld</w>
erweit ert</w>
Besorg nis</w>
on ic</w>
bemüh t</w>
staat lichkeit</w>
f i</w>
begrenz t</w>
woh l
ves sels</w>
Nor way</w>
Energi en</w>
prepar ing</w>
Cham ber</w>
st eig
noti fied</w>
Subsidi ar
im pose</w>
wer tung</w>
it ely</w>
Flücht linge</w>
Architek tur</w>
m ur
forth coming</w>
par la
Zustän digkeit</w>
collabor ation</w>
Nor den</w>
yst em</w>
D ynam
k ir
f es</w>
a is</w>
Freu de</w>
Ro bert</w>
Proble ms</w>
K unde</w>
t reiben</w>
connec tions</w>
bemüh en</w>
ap plying</w>
Vereinfach ung</w>
Telef on
Exec utive</w>
Besei tigung</w>
m essen</w>
ann es</w>
Ex peri
kon textu
W he
R ural</w>
Ombuds man</w>
di agno
ma kers</w>
is mus
bis lang</w>
V ision</w>
Get rän
hol ders</w>
re form
W all
M ein</w>
pf ung</w>
eth nic</w>
dan s</w>
Institu tion</w>
zi ge</w>
Pun kten</w>
ver ändert</w>
comp lic
notwendi ge</w>
Slowen ien</w>
ren ovi
aus gerichtet</w>
cre ates</w>
supp lies</w>
produc tive</w>
verur sacht</w>
ersch einen</w>
ani an</w>
D es</w>
Be weis</w>
appe ared</w>
m acro
in er</w>
Vertei digung</w>
zu gr
emphas ise</w>
di r</w>
ex ter
fähi gen</w>
Zw ecke</w>
wes halb</w>
Pf licht</w>
Kli ma</w>
remo ved</w>
not ably</w>
Jo s
Mex ico</w>
ge wer
ung st
O b</w>
Su ite</w>
vertre ten
tra ges</w>
flü ge</w>
Web sites</w>
Wachst ums
volun tary</w>
fra g
AN G
fa ster</w>
entsch lossen</w>
tig ungen</w>
ein bezogen</w>
In dustry</w>
Ho hen</w>
n i</w>
Über zeugung</w>
Fi re
unver züglich</w>
o th</w>
abil ität</w>
Min utes</w>
ko st
Geri chte</w>
ur teilung</w>
Kar ten</w>
Einwander ung</w>
alis ierten</w>
Op tionen</w>
k y</w>
boo st</w>
obstac les</w>
ven tion
zw ungen</w>
emerg ing</w>
b our</w>
adop ting</w>
Vi elleicht</w>
ann ehmen</w>
AK P-
teil s</w>
U se</w>
ün glich</w>
5 8</w>
tre es</w>
l ying</w>
Pro fession
servi ert</w>
sp on
de par
aus geschlossen</w>
C .</w>
inde x</w>
Wer bung</w>
Schul en</w>
An stieg</w>
demonstr ate</w>
Num mer</w>
or -
mel den</w>
Bevölk erungs
entscheiden de</w>
Konfli kt</w>
ell o</w>
Schi ffe</w>
Wer k</w>
5 4</w>
tur ns</w>
hi b
ent standen</w>
Zu griff</w>
Aus arbeitung</w>
ordn ungen</w>
kti ven</w>
ge führten</w>
Aus führungen</w>
ro te</w>
ori ent
Materi alien</w>
E EC</w>
mil k</w>
al located</w>
tro tzdem</w>
z ir
v ie</w>
te -
jun k
ad voc
reg ret</w>
Bud get</w>
la sting</w>
Fil m
sch wei
gro w</w>
Lit auen</w>
B ol
Reis e
An fragen</w>
8 2</w>
bour hood</w>
M ED
eh nt</w>
dra w
6 2</w>
ommunic ations</w>
auf nehmen</w>
op posed</w>
Wohl stand</w>
happ ens</w>
ver gen
s .
bes itzen</w>
stre bt</w>
p. m.</w>
Ge danken</w>
tu t</w>
eigen es</w>
Studi en</w>
f an</w>
kehr en</w>
Zu sch
W C</w>
V .</w>
schn elle</w>
ent lang</w>
Über na
berech tigt</w>
Internet -
mutz ung</w>
hosp it
Ex press</w>
ger ech
Bet re
per form</w>
Tra g
Ri ver</w>
win digkeit</w>
em en</w>
d as
Wir d</w>
mul tin
dire kten</w>
Ab fall
respec ted</w>
Plat tform</w>
person nel</w>
man ager</w>
deb ates</w>
ä um
par ents</w>
ni emand</w>
Fin d</w>
tr uth</w>
Pre isen</w>
L ett
Gerä te</w>
z o</w>
bequ em</w>
subsidi arity</w>
re m
kat astro
Er haltung</w>
D R
G ood</w>
Bi blioth
con taining</w>
Regi me</w>
8 7</w>
wat ch</w>
ul timately</w>
funktion ieren</w>
Zentral bank</w>
Ele ment</w>
inten d</w>
contri but
wid ely</w>
dis krimin
Kolle ge</w>
Er zeu
stre ets</w>
ge prä
acqu is</w>
coordin ated</w>
H O
ran k</w>
sav ings</w>
s ligh
bo at</w>
Bahn hof</w>
ackno wled
ern st</w>
Geb rauch</w>
or ca</w>
m l</w>
temperat ure</w>
Kin d</w>
erlau ben</w>
D auer</w>
ig ner</w>
prec ise</w>
k tive</w>
fur niture</w>
fac ts</w>
russ ischen</w>
che ap</w>
Bo den</w>
Gleich gewicht</w>
enen falls</w>
pro curement</w>
k ol
effizi ente</w>
mi d-
elektron ische</w>
spr in
dis covered</w>
al co
verhin dert</w>
T est</w>
se g
ful fil</w>
de tec
Krimin alität</w>
d inner</w>
Stra ß
mus ste</w>
s auber
bestimm ungen</w>
In stead</w>
brie f</w>
Auf sichts
char ming</w>
A b</w>
jo ined</w>
Y ear</w>
einge halten</w>
Wo chen
Ru le</w>
sozi aler</w>
j emand</w>
gesetz ten</w>
Fer r
ziem lich</w>
h am
ausge stat
Ent la
wissen schaft
Städ ten</w>
g ert</w>
fe e</w>
Geschä ft
stakehol ders</w>
re serves</w>
produ ziert</w>
exp lic
Su dan</w>
Wirk lichkeit</w>
P O
CO 2-
Unter schied</w>
nach drücklich</w>
di d
le ben
im port</w>
wor l
li erte</w>
k amen</w>
interes siert</w>
appreci ate</w>
Sp itz
Proz esses</w>
e ast</w>
de ter
avo i
Män nern</w>
satisfac tion</w>
I M</w>
äuß ern</w>
n ische</w>
illeg alen</w>
g am
klar en</w>
Ta ke</w>
Boo k</w>
illu str
Wahr heit</w>
Her b
än g
w alls</w>
Gegen stand</w>
. 00</w>
L ob
confir m</w>
Bu dap
tre at</w>
Kre u
E di
c able</w>
G old</w>
organiz ed</w>
grundsätz lich</w>
awar ded</w>
New sletter</w>
ag ent
Konta kt
bed rooms</w>
afri ka</w>
li erten</w>
pf lan
S U
c ans</w>
Lat via</w>
B SE</w>
jour ney</w>
ali ze</w>
sch ule</w>
cro ss</w>
7 7</w>
t um</w>
ran g</w>
K ür
Tra ining</w>
F ischer</w>
c af
Sem in
bei getragen</w>
u a</w>
drück en</w>
äh r</w>
Belgi an</w>
t tes</w>
erfolgrei che</w>
natur ally</w>
divi ded</w>
defin iert</w>
T EN
Ro tary</w>
Q U
Garanti e</w>
interpre tation</w>
Formu lar</w>
zus ehen</w>
educ ational</w>
pi eces</w>
4 .</w>
Fr ist</w>
7 3</w>
he ber
zu lassen</w>
realis tic</w>
dis hes</w>
sig ns</w>
will kommen</w>
sek tors</w>
dis charge</w>
depen ding</w>
person en
Vertre tern</w>
e astern</w>
Bemerk ungen</w>
S S</w>
Po ker</w>
Mon it
Um gang</w>
es ien</w>
Kommissions mitglied</w>
s .</w>
em a</w>
bo und</w>
en kt</w>
te sted</w>
v an
ori ented</w>
in n</w>
humanit ären</w>
st yl
Mehr wert
Ein schrän
verlei hen</w>
er stre
lo ans</w>
den heit</w>
3 D</w>
vor anzu
f ur</w>
Di re
targe ted</w>
over come</w>
Uni ons
R ati
Minister prä
T op
gef ähr</w>
own ers</w>
D ort</w>
Pla za</w>
person ally</w>
in habit
aussch uß</w>
Ä r
enth usi
zweifel los</w>
An sch
- up</w>
ma y
los ses</w>
Konsul tation</w>
Ara b</w>
spra ch</w>
Regierungs konferenz</w>
AID S</w>
voll ständigen</w>
a x
Masch inen</w>
vereinbar t</w>
vor rangi
inter essi
Po wer
Bel ast
S P</w>
6 ,
oper ative</w>
Ver pack
Ma in</w>
C oo
sper ity</w>
N ic
EM S</w>
ma chte</w>
Ein kommen</w>
-S ter
min ority</w>
Ratsvorsit z</w>
I E</w>
rupp en</w>
lab elling</w>
verantwor tungs
strateg ische</w>
ey e</w>
ver mie
grenz e</w>
la m</w>
Minder heiten</w>
ei ll
ex por
produc tivity</w>
ph arm
f ing</w>
bel ast
geeig nete</w>
re di
ier ende</w>
ma ster</w>
Li fe</w>
ange l</w>
Di ffer
U ser</w>
spec tac
num mer</w>
k rieg</w>
muni cip
critic ism</w>
zer r
impres sive</w>
fin ished</w>
per cent</w>
b ann
Wil l</w>
tan e
Er as
verein fa
dau er</w>
R ap
Kapit el</w>
ruhi gen</w>
provi der</w>
conver gence</w>
am tier
legi timate</w>
geh ens
Cont acts</w>
propos ing</w>
äuß ert</w>
ä fen</w>
leis ure</w>
negoti ating</w>
glob alisation</w>
Wash ington</w>
M erc
resol utions</w>
5 9</w>
kur ze</w>
Hung arian</w>
Automob il
wirtschaft lich</w>
fant astic</w>
facil ity</w>
d einer</w>
tran satlan
mess ages</w>
es day</w>
bu chen</w>
Proc edure</w>
li min
bel angt</w>
Lu ft</w>
lie ß</w>
programm ing</w>
on ing</w>
exper t</w>
er lassen</w>
Thom as</w>
dro p</w>
dri vers</w>
dire kte</w>
So vi
vorhan denen</w>
lo g</w>
la y
hervorra gende</w>
et t</w>
Proc ess</w>
ent decken</w>
Re volution</w>
IN TER
inten ds</w>
sch ed
satis fied</w>
re in</w>
er setzt</w>
T yp
Auth ority</w>
über nimmt</w>
sur pr
reich s</w>
Ab schnitt</w>
ra c
Wel come</w>
Je des</w>
Al li
A partment</w>
O ver
par ks</w>
fri end</w>
b all
masch inen</w>
behavi our</w>
Tran sa
Cust om
erfolg reichen</w>
enter tainment</w>
R om</w>
ION S</w>
è s</w>
we ather</w>
mo stly</w>
bestä tigen</w>
Haf en</w>
Aus führung</w>
nom in
bekräf tigt</w>
Kon text</w>
län dliche</w>
ben en</w>
au dio</w>
ni emals</w>
b ou
Atlan tic</w>
Redu zierung</w>
zu erst</w>
UNG EN</w>
plac ement</w>
def end</w>
Aus stattung</w>
mon u
AC P</w>
en abling</w>
Kan ada</w>
expl ore</w>
O EC
shor t-
Ein w
ro utes</w>
pu ts</w>
französ ische</w>
unter sucht</w>
parla mentar
Ak tions
visi ble</w>
care er</w>
he ating</w>
einfa chen</w>
verwal tung</w>
pro mp
frequ ently</w>
Ab hängi
techn ologie</w>
gegeb enenfalls</w>
Anti -
il le</w>
demonstr ated</w>
Akte ure</w>
stres sed</w>
c ab
St reit
z ine</w>
inv est</w>
leg te</w>
equi valent</w>
an geb
L IN
j i
chann els</w>
Regierung schefs</w>
ra w</w>
Inform ation
viel er</w>
dru g</w>
por tu
enti al</w>
Stra ßen</w>
lau tet</w>
expan sion</w>
Vorsit zes</w>
Stabil itäts
fli ghts</w>
abgel ehnt</w>
Schri ft
B lack</w>
A ward</w>
ier enden</w>
avi ation</w>
strö m</w>
ch a
Sci ence</w>
ac com
Führ ungs
4 0
n ungs
verfüg baren</w>
ti cket</w>
hei m
Min i
E X</w>
Bei fall</w>
verur teilt</w>
neh mer
an statt</w>
pro sperity</w>
alis tischen</w>
the at
ed ge</w>
Lissab on-
IT -
1 1.</w>
st opp
Quali fik
pat ent</w>
ou red</w>
hin aus
ar ab
Kompon enten</w>
EUROP EAN</w>
Soll te</w>
Asi en</w>
blu e</w>
jud gment</w>
regar ded</w>
dump ing</w>
exam ined</w>
ab and
wirtschaf ten</w>
stä tigkeit</w>
ra ising</w>
de als</w>
bri tische</w>
M -
g no
fo rec
fizi eren</w>
an belangt</w>
gestal tet</w>
al ties</w>
sich eren</w>
ausgezeich nete</w>
W are</w>
ä r</w>
bish erigen</w>
n ut
cou ple</w>
com men
M ens
El tern</w>
ver wand
Sch ü
wa ff
kein es
hab t</w>
Sp ace</w>
A ni
Ä ISCH
langfris tigen</w>
beauftrag ten</w>
Rechts staatlichkeit</w>
Im ple
p -
ber aten</w>
con fer
M ur
sto ß</w>
phen om
techni ques</w>
prä sent
O ld</w>
wor se</w>
b lin
sch reit
mean ing
gew inn
dri ver</w>
comm and</w>
C N
200 0-
top ic</w>
st ück</w>
sinn voll</w>
ass ure</w>
vent ure</w>
ga p</w>
cast le</w>
Geschäf te</w>
sin stru
Medi en
EUROP ÄISCH
a ward</w>
ehemali ge</w>
W et
Mün chen</w>
stra fe</w>
ee ded</w>
Vereinig te</w>
Ma y
per cent
letz tlich</w>
investi eren</w>
20 -
sch la
rec y
Audi tors</w>
s and</w>
ign or
fa ther</w>
alb um</w>
zi er
di ed</w>
Vol k
D onn
is ra
c old</w>
Ver mitt
Soci ety</w>
R an
soci e
Pu er
Prin zipien</w>
re vision</w>
betri eben</w>
Transpor t
Reguli erungs
gewähr en</w>
bel g
Haf tung</w>
Nahrungs mittel
ey es</w>
5 .</w>
Kon sens</w>
Ausgang spunkt</w>
or er</w>
j ap
einheit liche</w>
- to-
commit tees</w>
Y outh</w>
Be ziehung</w>
net er</w>
Chin as</w>
es n</w>
Wirtschaft spolitik</w>
new ly</w>
is ierungs
addres ses</w>
ab use</w>
Qu ar
strength ened</w>
Sco t
Konta kte</w>
tr end</w>
proble me</w>
Ab stimm
re min
happ ening</w>
ko stet</w>
al itäten</w>
Kon kurr
Er stellung</w>
zentr en</w>
N ein</w>
out door</w>
jo in
ci tizen</w>
ECH O</w>
ro b
P läne</w>
Aus stellung</w>
So ur
6 3</w>
legi tim
do ors</w>
h en
Ju gend</w>
An hang</w>
particip ating</w>
fil ms</w>
ati k</w>
ans wers</w>
A US
EP s</w>
Wi th
off ic
exam ination</w>
b lood</w>
Waff en
mi d
inter nen</w>
glau b
transpor tation</w>
ru hig
EW G</w>
Ambi ente</w>
sy mb
ow ner</w>
gen -
be ten</w>
C L
su gar</w>
fir stly</w>
instal liert</w>
belie ves</w>
Sta ates</w>
gemein schaft</w>
sk a</w>
re turned</w>
hervor ge
bes timmen</w>
exc eption</w>
deleg ations</w>
eri o
L os</w>
es c
Auff or
Immobili en
Gro w
t ance</w>
an n</w>
ier ter</w>
F ang
Ang st</w>
is men</w>
hund reds</w>
under stood</w>
contr ast</w>
perform ed</w>
fal sch</w>
ti que</w>
Kohä sion
Ä gyp
Fre e
geleg te</w>
bring ung</w>
ausgezeich neten</w>
In f
Hinder nisse</w>
D O
star ten</w>
stand s
parlia ments</w>
harmon isation</w>
fest zulegen</w>
Bedroh ung</w>
üh l
kan er</w>
G ut
Feder ation</w>
Europ a-
host els</w>
über prüft</w>
gerä te</w>
gen s
Tre k</w>
ti ckets</w>
d ining</w>
certi fic
public ation</w>
Konfer enz
Kan n</w>
Frei zügigkeit</w>
unabhängi gen</w>
nor thern</w>
consider ing</w>
T isch</w>
Mens ch</w>
verhand lungen</w>
up dates</w>
min orities</w>
isra el
Sho p</w>
AN T
super vision</w>
ag ers</w>
Fron t</w>
An hör
ange kün
an wen
F lash</w>
b les</w>
sho wing</w>
multilater al</w>
griech ischen</w>
lo oked</w>
Gesch m
wah len</w>
sen ding</w>
Mill enni
ag gres
lie b
Außen politik</w>
über ein
ver än
er sucht</w>
l ust</w>
k g</w>
ho ff
et h</w>
Wirk samkeit</w>
komm un
co operate</w>
schön sten</w>
inhabit ants</w>
b ungen</w>
T ak
ein ig</w>
repe at</w>
om et
mensch liche</w>
ig es</w>
region aler</w>
conf ron
Ver trau
wel chem</w>
seh e</w>
in ser
wei le</w>
sa una</w>
ei chert</w>
K ing</w>
in sul
Niederlan den</w>
K as
me ant</w>
in en
gener ated</w>
freund lich</w>
Klas se</w>
Ass embly</w>
inform ationen</w>
Konsul t
constitu tional</w>
Er forder
X -
Versicher ungs
er wer
J ac
Besonder s</w>
Vertragsverletz ungsverfahren</w>
N on-
, 00</w>
se at</w>
sch einen</w>
perio ds</w>
Grow th</w>
ökonom ischen</w>
erst mals</w>
lich sten</w>
Stockhol m</w>
Ex ternal</w>
urop ä
li ft</w>
W omen</w>
P in
E d
um ini
por ation</w>
kap az
CO UN
li en</w>
an ges
adap t</w>
Universit ä
Air bus</w>
Dec laration</w>
wach sen</w>
Per manent</w>
safegu ard</w>
g age</w>
t onn
correspon ding</w>
pu te</w>
Y es</w>
ment -
gek enn
Künst ler</w>
Mi o</w>
Brasili en</w>
W ein</w>
Eigent um</w>
integri erten</w>
.. ...</w>
won ach</w>
Hei mat
Er leb
empf oh
effizi ent</w>
an wes
ensu res</w>
S ob
ro ck</w>
aus gesprochen</w>
cri mes</w>
An lass</w>
trans mission</w>
t ter</w>
car rying</w>
Poten zial</w>
compon ent</w>
NG Os</w>
r isi
Kom ment
ES C</w>
ent steht</w>
öffent licher</w>
pl ause</w>
mi x</w>
hol en</w>
Hö chst
E K
speci fied</w>
soli d</w>
cas h</w>
ac ted</w>
st amm
Al geri
komm e</w>
d ä
F enster</w>
L oh
d less</w>
an er</w>
Stu denten</w>
D N
kur zen</w>
klär ung</w>
it ten</w>
forder e</w>
favour able</w>
Leg isl
plen ary</w>
kon fron
derzei tige</w>
ein gerich
sorgfäl tig</w>
rapporte urs</w>
pro ud</w>
F IN
Ent fer
pack aging</w>
fre m
l i</w>
do esn</w>
feh lt</w>
dec line</w>
verk auft</w>
col our</w>
Y o
Egyp t</w>
par tly</w>
her zustellen</w>
Sicher ung</w>
lich te</w>
ge stärkt</w>
tac kl
zi vil
s elling</w>
enter prise</w>
vorsch läge</w>
en vis
ung s</w>
schwi er
O s
I W
un gefähr</w>
extre m</w>
siden tin</w>
geplan ten</w>
decisi ve</w>
Identi tät</w>
star ts</w>
lo ts</w>
exclu sion</w>
Bade zimmer</w>
far ming</w>
zusammen zu
geri cht
occ ur</w>
hei m</w>
blo ck
mal erweise</w>
inv ite</w>
öff nung</w>
Sach ver
Fo to</w>
Fahr zeuge</w>
redu zieren</w>
Georgi a</w>
E AS
transp o
some what</w>
aus gaben</w>
ör ung</w>
Budap est</w>
Land es
Kon vergen
An la
dr ink</w>
gla d</w>
be völk
mittl eren</w>
author ised</w>
verk aufen</w>
Kor ruption</w>
H im
re cip
profession als</w>
be zahlen</w>
Er wä
sa ving</w>
is lands</w>
h all</w>
Drit tens</w>
f lug
un möglich</w>
fün f
ab ol
Aus bildungs
Lu f
und ings</w>
decor ated</w>
R unde</w>
portu gi
M EPs</w>
Ver zeichn
Re al</w>
Por t
D C</w>
blo g</w>
Host el
-Ster ne-
record ed</w>
winn ing</w>
deli ghted</w>
au l
f unded</w>
Über setzung</w>
sol ange</w>
u til
k enntn
Jos é</w>
Aufenth al
Über legungen</w>
top ics</w>
oblig ed</w>
m i</w>
vol lem</w>
po lic
Tab ak
Est land</w>
mat ch</w>
tr ends</w>
fu els</w>
7 6</w>
è re</w>
recei ving</w>
ge fügt</w>
N ig
Euro zone</w>
ähn liche</w>
clu bs</w>
Bei de</w>
unter liegen</w>
correc tly</w>
Lat ein
di ger</w>
angemessen en</w>
Wer ke</w>
L en
Be stellung</w>
stru g
er ce</w>
besonder er</w>
lo vely</w>
bure auc
M eg
shi pping</w>
pen alty</w>
6 1</w>
leg ally</w>
Minister ium</w>
Gewi cht</w>
n am</w>
manufactur er</w>
de struction</w>
ergän zt</w>
prak tische</w>
er fahr
Zusammen halt</w>
eill ance</w>
In ten
Ci vil</w>
u ti
defin itely</w>
angebo t</w>
Ver mö
Deut schen</w>
Bu cht</w>
Arbeitsplat z</w>
erh ol
vertre ter</w>
sho wed</w>
be ur
Durch setzung</w>
vor ange
stärk ere</w>
Mu sic</w>
re e</w>
her stellung</w>
quar ters</w>
fähi ge</w>
Ratsprä sidentschaft</w>
Kohäsion spolitik</w>
C r
Wi thin</w>
5 7</w>
m -
an gesehen</w>
et ed</w>
Vor aussch
Hel sin
vis ited</w>
proper ties</w>
D ek
prin ting</w>
bab we</w>
tur en</w>
ent deck
Dor f</w>
Sovi et</w>
prev enting</w>
subst ance</w>
f r</w>
umfas sen</w>
T S
dist ingu
c utting</w>
B is
ate ful</w>
Rechts grundlage</w>
Pre siden
N ext</w>
ho h
genü gend</w>
gener ate</w>
candi dates</w>
bahn hof</w>
With out</w>
B rie
8 3</w>
se where</w>
T on
A mon
J ord
pass word</w>
Völ ker
Pers ön
Eben en</w>
pharm ac
ein zusetzen</w>
be vorzu
gän ge</w>
T rau
F OR</w>
lä ßt</w>
chec ks</w>
ries igen</w>
m t</w>
Ver fahrens</w>
zi erten</w>
pos sibly</w>
gen eri
Sch we
Th ail
F ru
AR E</w>
renov ated</w>
7 4</w>
b ass
aktivi eren</w>
met al</w>
hervor heben</w>
bedeut ende</w>
Gep ä
konzentri ert</w>
Di am
An pass
so dass</w>
promis es</w>
schi cken</w>
res istance</w>
aci ón</w>
Mac ed
ver ändern</w>
erk ennt</w>
10 -
the ore
th eme</w>
ange geben</w>
dr ing
gi o</w>
dem anding</w>
bl ing</w>
ten dlich</w>
System en</w>
Ma c</w>
US B</w>
Maastri cht</w>
Fisch ler</w>
to wns</w>
pro grammen</w>
ch est
cu ts</w>
K räfte</w>
r ated</w>
hous ing</w>
high- quality</w>
bege g
L as
Ex ist
einschlä gigen</w>
Sch luß
Du sche</w>
l iste</w>
clas sic</w>
be vor
ausge führt</w>
anspru chs
Liefer ung</w>
Ear th</w>
war ning</w>
th es
sligh tly</w>
le u
Ra dio</w>
B C</w>
mo tiv
adv ent
herr sch
balcon y</w>
pris on
iz za</w>
i x</w>
Nach richten</w>
ish er</w>
coher ent</w>
re placed</w>
go s</w>
ge zwungen</w>
Lett land</w>
A 3
ell ers</w>
Indi vidu
surro undings</w>
Aus gabe</w>
lic ense</w>
o tive</w>
star tet</w>
gh ly</w>
M utter
Er richtung</w>
Er reichung</w>
vor her</w>
impres sion</w>
sc lub</w>
introduc ing</w>
S ev
k top</w>
D ie
gratu lieren</w>
g old</w>
remo te</w>
pres s
hard ware</w>
Cha ir
F ris
militär ischen</w>
Ein wohner</w>
inde x
famili ar</w>
k ette</w>
htt p</w>
T EN</w>
plac ing</w>
mor al</w>
langfris tig</w>
gen i
zurück zuführen</w>
vers eh
steh e</w>
No ch</w>
Leg al</w>
D ri
la ges</w>
Well ness
t ab
cop yright</w>
wa ffen</w>
bur ger</w>
Je an-
zugr unde</w>
Bo x</w>
si v</w>
er es</w>
H M
w ahl
ges u
Ein heit</w>
vor h
versi ties</w>
masch ine</w>
Premier minister</w>
Nor wegen</w>
Energie effizienz</w>
digit alen</w>
Z one</w>
I X</w>
vor bereitet</w>
ß ten</w>
ed onien</w>
T onnen</w>
- European</w>
socie ties</w>
tak ings</w>
gl ück
über ein</w>
ber ge</w>
Ver arbeitung</w>
F assung</w>
Be weg
GN U</w>
z iger</w>
ap p</w>
Krank heit</w>
E ri
Con gress</w>
tim et
re vised</w>
im por
rä um
mod ell</w>
k olle
ban k
L y
nied rig
TEI L
G et</w>
D ou
t ent
it y-
einzig artige</w>
Assozi ierungs
in put</w>
care ful</w>
bi ke</w>
L as</w>
grenzüberschreit enden</w>
Hostel sclub</w>
sh ar
on te</w>
Un der
Ma j
G ö
i j
ch air
appoin tment</w>
Kam era</w>
Frei heiten</w>
bezo genen</w>
Sor gen</w>
Intern ationale</w>
distri buted</w>
ent gel
Empf än
Bo den
arbeit s
Behör de</w>
min uten</w>
ge stattet</w>
Rück kehr</w>
Col om
18 .</w>
th ly</w>
in y</w>
re source</w>
dis played</w>
kl assi
Je de</w>
Bereit schaft</w>
im migrants</w>
s low</w>
Absch affung</w>
fül len</w>
fes tival</w>
U -
P OL
schle cht</w>
J e</w>
J ames</w>
wom an</w>
enti ves</w>
arri ve</w>
offizi ellen</w>
fo undation</w>
er nen</w>
jec tion</w>
contri buted</w>
ut tle</w>
tra gt</w>
fra me</w>
deli ber
assu me</w>
Mar ke</w>
Über blick</w>
territ orial</w>
as i</w>
Über gang</w>
gesp eichert</w>
ci an</w>
Wan del</w>
Con sul
r ation
di vision</w>
Le gi
kri ti
Mechan ismen</w>
sit z</w>
Deleg ationen</w>
unabhängi ge</w>
institution elle</w>
Stand or
credi bility</w>
am az
Somm er
countr y
Ver zö
gesund heit</w>
Ter rit
P lus</w>
ten d</w>
gh ter</w>
de partment</w>
Sign al</w>
J a
Isra eli</w>
teu er</w>
ab gestimmt</w>
A R</w>
oper ator</w>
Mar ina</w>
Al les</w>
dep end</w>
Ser bien</w>
Ph one</w>
re porting</w>
r ating</w>
pa ying</w>
d ele
K urs</w>
gestal tung</w>
ar ise</w>
Wor t
prospec ts</w>
chan nel</w>
konfron tiert</w>
einfach er</w>
zi erte</w>
Sek tors</w>
steu ern</w>
ex it</w>
Finanz krise</w>
Far be</w>
er hielt</w>
- based</w>
l ists</w>
ver bringen</w>
func tional</w>
Plen um</w>
st ages</w>
quo tas</w>
direc ted</w>
cons ent</w>
Stei gerung</w>
ra d
nation als</w>
Geh eim
ü bt</w>
remain ed</w>
Pra gue</w>
De partment</w>
win es</w>
angewand t</w>
se ment</w>
urspr ünglich</w>
p m</w>
ed ly</w>
Po wer</w>
8 4</w>
el sewhere</w>
7 8</w>
L ö
sett ings</w>
kon troll
größ er</w>
B ang
vis iting</w>
jeg liche</w>
she et</w>
auff or
Schnit t
Is lands</w>
Dem on
steig ern</w>
di r
Elek tro
or ation</w>
is tic
fäl lig</w>
7 ,
uni versities</w>
b and
Vor stellung</w>
rel ative</w>
I K</w>
Nachhal tigkeit</w>
An nex</w>
ent es</w>
G F
wachsen den</w>
struk turel
graph y</w>
percent age</w>
erreich bar</w>
surv ey</w>
pre siden
pre fer</w>
Sa int</w>
Lou is</w>
6 9</w>
bes orgt</w>
Whe ther</w>
W at
E-Ma il-
An merk
represent ation</w>
neighbo uring</w>
av ec</w>
Fir men
we ge</w>
um geben</w>
sen ken</w>
ni ghts</w>
des k</w>
bat ter
new sp
eig net</w>
W illi
Person al
k raten</w>
Vor lage</w>
Schul den
ru b
libr ary</w>
H aving</w>
í n</w>
H all</w>
G las
sugge sted</w>
kü mm
ei b
ak ter
Dan ish</w>
R est</w>
t ö
organis ieren</w>
unzu reich
s ac
fer tigen</w>
Änderungsant rägen</w>
spo ken</w>
Ber e
Projek ts</w>
lo an</w>
beob achten</w>
Lab our</w>
star s</w>
sha re
diver si
ber ühr
atta ched</w>
Sen kung</w>
Ri o</w>
P ort</w>
interess ante</w>
2. 0</w>
supp lier</w>
ic als</w>
enthal tenen</w>
z im
mar ine</w>
hier bei</w>
A h
woll ten</w>
drück t</w>
Des wegen</w>
W H
hy dro
d un
fre edoms</w>
de fiz
p lug
less ons</w>
wer ken</w>
stei gt</w>
it en
gel angt</w>
amen ded</w>
Er gän
Buch ung</w>
Überein kommens</w>
under takings</w>
ad vis
D G</w>
Bestimm ung</w>
Staats -</w>
afri kanischen</w>
Gipf el
Ger man
j o</w>
beglück wünschen</w>
Jav a</w>
Ge fahren</w>
fo und
eri ge</w>
ol o</w>
c us</w>
M ass
S ig
Ge gend</w>
Fre it
ony mous</w>
der ing</w>
Verbraucher schutz</w>
der er</w>
Son y</w>
inter ior</w>
hum an
Mor gen</w>
wirk samen</w>
m ein
Soll ten</w>
su ites</w>
au ßen</w>
L ear
gew onnen</w>
ar ising</w>
N eben
Mo z
Ch urch</w>
tour ists</w>
addres sing</w>
Tai wan</w>
Sa una</w>
Kilom eter</w>
ge plant</w>
fre sh
dis cre
auth ori
S ad
M angel</w>
re ject</w>
mo dule</w>
j enen</w>
effek tiv</w>
gr ateful</w>
app el
sol ches</w>
off ene</w>
Ein stellungen</w>
9 ,
ange passt</w>
S eit
M ed
EC B</w>
four th</w>
Fit ness
ni k</w>
ben acht
Poliz ei</w>
P lug
schli mm
pas siert</w>
fu sion</w>
e u</w>
v on
wie gend</w>
re volu
Au ge</w>
koh är
consider ably</w>
Vier tel</w>
über zeugen</w>
ran ten</w>
gh äfen</w>
fashi on</w>
Netz e</w>
ul s
gra d</w>
Sat ur
after noon</w>
P A</w>
Invest oren</w>
Mark eting</w>
M esse</w>
y o</w>
ame ters</w>
St ück</w>
Aut onom
weis ungen</w>
mitglie der</w>
á n</w>
Fri day</w>
it y
he at</w>
Ander e</w>
heal th
ga ined</w>
Zusätz lich</w>
wen ig
st em</w>
ver halten</w>
gu n</w>
eth eless</w>
argu ment</w>
appe arance</w>
ac qui
In kraft
8 0
uni versity</w>
ear s</w>
K ön
v est
vor stellen</w>
präsen tieren</w>
ver zi
fe es</w>
organ ic</w>
n esses</w>
docu mentation</w>
Mechan ismus</w>
ap art</w>
Ho li
ref ers</w>
net z</w>
cor ner</w>
se es</w>
ver st
sub jects</w>
sorganis ation</w>
b ele
Gleich stellung</w>
eg al</w>
mp ft</w>
le bt</w>
ear th</w>
ck en
Gali le
Ex pl
geb oren</w>
er setzen</w>
R ele
lossen heit</w>
Ar men
plan et</w>
con stitutes</w>
einger eicht</w>
der te</w>
compar ison</w>
Ex tre
sin g
üh r</w>
me e</w>
Ver sorgung</w>
port al</w>
O l
Mon t
reflec ts</w>
stütz t</w>
I P-
S z
Men sch
K auf</w>
zu lässi
Kommission sprä
wi ld</w>
r on</w>
Ver teilung</w>
Throu gh</w>
Prof essor</w>
Er inn
geograph ical</w>
den z</w>
win dows</w>
lux uri
competi tors</w>
G am
man aging</w>
Zu ver
Z wei</w>
la bel</w>
H IV</w>
recht lich</w>
Frei zeit
telec ommunications</w>
si v
jur is
az za</w>
ar med</w>
Ins gesamt</w>
wähl te</w>
ver ordnung</w>
groß em</w>
B and</w>
surv eillance</w>
ran ging</w>
L ar
in ations</w>
entwick elte</w>
E p
sel be</w>
over view</w>
occa sions</w>
hervorge hoben</w>
ger ing</w>
der e</w>
indic ators</w>
8 ,
concentr ation</w>
Son ne</w>
d oppel
Vie w</w>
gab en
fer n
Maz edonien</w>
so genannten</w>
Ob jec
mas sage</w>
individu elle</w>
con tradi
mäß igen</w>
A do
v alley</w>
encour aged</w>
b utes</w>
hier für</w>
mer ken</w>
on e
ma chten</w>
fore sts</w>
Coo k
electri c</w>
S oh
Drit tel</w>
Auf trags
Öff nung</w>
an z
Mitarbeit ern</w>
mo vements</w>
ab sor
re construction</w>
Schlaf zimmer</w>
C D-
individu ellen</w>
den kt</w>
Viet nam</w>
Host els</w>
leg ed</w>
difficul ty</w>
Ex change</w>
1 1
erheb lichen</w>
K örper
F al
gin e
S t</w>
relax ation</w>
Zi ffer</w>
B ased</w>
Aus richtung</w>
ru f</w>
Einzel heiten</w>
W OR
E qu
te a</w>
br ut
R em
m use
Gra d</w>
sever e</w>
produc er</w>
fa vor
ent gegen</w>
great ly</w>
wür digkeit</w>
stu dio</w>
Wün sche</w>
er gibt</w>
W äl
gewis sen</w>
G E</w>
ur ies</w>
dig es</w>
Win d
Recht sa
Ent sch
sched ul
Z eu
event ually</w>
comp li
besch rieben</w>
inc entives</w>
Gent oo</w>
mo ther</w>
men den</w>
l y-
exc iting</w>
er fordern</w>
proce ed</w>
continu ous</w>
Z ins
tin i</w>
beschäf tigen</w>
6 .</w>
ul t
u re
leh nung</w>
in folge</w>
lo unge</w>
entran ce</w>
Beschrän kungen</w>
hin zu</w>
dec ade</w>
Wal d
Pat ri
Sob ald</w>
Gem ä
dis pute</w>
am t</w>
mag nific
air ports</w>
be we
pl ate</w>
auf s</w>
Provin z</w>
wiederhol t</w>
host el</w>
finanzi erung</w>
land wirtschaftlichen</w>
in ess</w>
Qu elle</w>
um in
mar ri
constitu tion</w>
O r</w>
low- up</w>
Katastro phe</w>
For ce</w>
ris es</w>
h es
g ut
Thail and</w>
F ei
reflec ted</w>
graph ics</w>
an schließend</w>
ta gen</w>
stan de</w>
läs sigkeit</w>
fl at</w>
k amp
sol ely</w>
pra c
g lie
al location</w>
air e</w>
fahr zeuge</w>
Gaz a</w>
р а
sugges tions</w>
se bene</w>
dan k
cl ause</w>
Person en
rest ore</w>
metho den</w>
P ie
propor tion</w>
leich ter</w>
UN K
exclu ded</w>
Steu erung</w>
S imp
verbo ten</w>
um setzen</w>
sch au
en erg
ir re
ali for
Ver lust</w>
jen er</w>
einge gangen</w>
bot tom</w>
all ed</w>
euro s</w>
en abled</w>
En gine
dom ain</w>
stan z</w>
col lap
Zu ge</w>
Geri chts
integri ert</w>
bewäl tigen</w>
15 .</w>
c ommission
arbeit ete</w>
S timm
Pre mi
Funktion ieren</w>
rei cher</w>
redu ziert</w>
pre t
vac ation</w>
port folio</w>
ath ed
accur ate</w>
join tly</w>
zusammen arbeit</w>
i ed</w>
am i</w>
pos ing</w>
adul ts</w>
Per haps</w>
Ö st
Rahmen bedingungen</w>
Kultur en</w>
wh ol
enjo yed</w>
AS S
ver mitteln</w>
akzep tabel</w>
vereinbar ten</w>
Ver lu
ven ues</w>
t ables</w>
sprech end</w>
antwor tet</w>
well en
gesch afft</w>
Verletz ung</w>
woh nen</w>
Commission ers</w>
ne vertheless</w>
Verbrau chern</w>
ti ere</w>
S ein</w>
ur lau
speak er</w>
extra ordinary</w>
at tri
gar dens</w>
achie vement</w>
ähr t</w>
co ok
My SQL</w>
Br un
mus sten</w>
M ah
pla y
geräum t</w>
gebo ten</w>
configur ation</w>
Nach richt</w>
J us
me ister
Rel ations</w>
chen der</w>
Qu ellen</w>
Aus maß</w>
wa ge</w>
wi ce</w>
refer endum</w>
pl enty</w>
p ac
läu fi
dis abled</w>
Ver sammlung</w>
Qu ality</w>
verring ert</w>
explo itation</w>
Vor der
weit ung</w>
ut ation</w>
di ch</w>
umfang reiche</w>
mär kten</w>
limin ary</w>
Spec i
4- 0
tradition elle</w>
cour age</w>
bud gets</w>
Währungs union</w>
tonn es</w>
liber al</w>
Helsin ki</w>
Web seiten</w>
Selb st</w>
ver dient</w>
sta un
ent spann
F öder
thre sh
suff er</w>
verbin den</w>
V I</w>
A vi
bege ister
Kü sten
Kon junk
ter ung</w>
stri chen</w>
p ar</w>
W är
ha z
Str as
Lie cht
L ern
uri ties</w>
Austr alia</w>
n ör
fit ness</w>
drin ks</w>
air lines</w>
jähr lichen</w>
hinzu fügen</w>
Parla ments
Ber n
bra chte</w>
Syri a</w>
Ergeb nissen</w>
qu iry</w>
bene fici
tri al</w>
staat licher</w>
ro lle</w>
Maced onia</w>
G V
Kon figur
nut ri
exter nen</w>
Perspek tive</w>
Mod elle</w>
is ite</w>
geh ol
et ab
U R</w>
telef on
beri chten</w>
belie f</w>
Se ver
A D</w>
Ü bri
d al</w>
be zü
sub sequent</w>
sen sible</w>
imp lications</w>
über mittelt</w>
ver wei
k lear
as en</w>
ap s</w>
ähn lich</w>
ste chni
schwer en</w>
Befug nisse</w>
se -
o v</w>
an halten
cos y</w>
arti st</w>
Wiederauf bau</w>
Kap ital</w>
highligh ted</w>
Z e
T IC
E dition</w>
us ern</w>
Rechn ungs
Char les</w>
seek s</w>
erör tert</w>
Wahr ung</w>
hear ing</w>
disast ers</w>
E EA</w>
Den k
6 0
suffici ently</w>
st sein</w>
c i</w>
Regional politik</w>
ex klu
comple tion</w>
Bran che</w>
vor haben</w>
arri ved</w>
pro ven</w>
bekan nte</w>
R ö
desi red</w>
M ann
Comm un
bet reiben</w>
Reguli erung</w>
Ques tion</w>
si t</w>
campa ign
Nachbar n</w>
ver ehrte</w>
st un
Be wäl
Informations gesellschaft</w>
hoh em</w>
analy se</w>
An sichten</w>
ver teilt</w>
é es</w>
ru ft</w>
ru f
in os</w>
iel d</w>
ein mali
boo t</w>
grün den</w>
geb illi
Bo tschaf
Institu t</w>
lic ation</w>
Aus weitung</w>
umfassen d</w>
necess arily</w>
er teilt</w>
descri ption</w>
de posit</w>
Ger ech
wech sel</w>
Ado be</w>
r ut
it u
where as</w>
ong side</w>
einzu führen</w>
dri ven</w>
pol y
M B</w>
Wer be
Con sequently</w>
ur ious</w>
to i
beein druck
7 .</w>
re tail</w>
auf re
Sk ype</w>
si ghts</w>
kri eg
Selbst verständlich</w>
proto col</w>
W eg
Ima ge</w>
übri gens</w>
Geb ur
U K
Bewäl tigung</w>
dep lo
Gericht shofs</w>
finan ces</w>
conc er
ck -
restric ted</w>
pre ad</w>
U -B
Pas sa
r d</w>
ergän zen</w>
Kor rek
A th
Glaub würdigkeit</w>
we ak</w>
suff ered</w>
Amend ments</w>
5 00
öffent lich</w>
gemeinsam er</w>
expla ined</w>
perf ekt</w>
no ver</w>
bür ger</w>
To wn</w>
ra k
p h</w>
ausge geben</w>
aus sprechen</w>
Ho he</w>
Ex p
7 9</w>
lo ck</w>
Weit eren</w>
versch är
beschrän ken</w>
at o
zu tage</w>
ha ir</w>
Konsequ enzen</w>
thre ats</w>
en cia</w>
Wirtschafts krise</w>
ter ed</w>
res sourcen</w>
a c</w>
Kamp agne</w>
wi es</w>
b ad
O der</w>
concep ts</w>
Schl üssel</w>
Re de
In flation</w>
aus wirken</w>
Wert pap
indic ate</w>
geb rau
adap ted</w>
Des cription</w>
D res
s k</w>
d än
Per form
Leit ung</w>
Fak tor</w>
s ought</w>
n ine</w>
gesch ätz
adjust ment</w>
außerord entlich</w>
all ing</w>
mis sions</w>
eng age</w>
rech nen</w>
accoun ting</w>
hin gegen</w>
bilater alen</w>
leich heit</w>
T RA
D al
fü ll
unterschie dlich</w>
m p</w>
Is lam</w>
ger ät</w>
A sian</w>
w rote</w>
reib ungs
ge beten</w>
eh m
Fran zös
wesent licher</w>
r ental</w>
betra cht</w>
P ER
kat oren</w>
tra de
us -
per mitted</w>
militär ische</w>
maß geb
li s</w>
for ts
sch u
jäh ri
Mand at</w>
eli gible</w>
. com
Th urs
vor gelegten</w>
Herb st</w>
Flu ghäfen</w>
zentr al</w>
internation ally</w>
g allery</w>
bat tle</w>
oni o</w>
every day</w>
a j
R ü
AL L
will ing
fahr ens
b latt</w>
Oper ation</w>
Con tin
techn isch</w>
auf treten</w>
high lights</w>
depar ture</w>
IM F</w>
vir tual</w>
ti me
er richtet</w>
en cing</w>
Stu fe</w>
RO M</w>
An betracht</w>
zah lungen</w>
p or</w>
et a</w>
Pat ent
G lau
connec t</w>
re venue</w>
der ed</w>
spectac ular</w>
bezo gene</w>
Z ut
Host el</w>
m ass
domin ant</w>
d ges</w>
Li ke</w>
gebil det</w>
A ca
sc ene</w>
res ist
Bet reiber</w>
G au
е н
speci ally</w>
em bar
Jus tiz
C las
ou d</w>
Ba y
gesch m
bein gs</w>
Gol d
Coun tries</w>
styl ish</w>
ge fasst</w>
cir cul
beruf lichen</w>
P lätz
pil ot</w>
an ni
Voraussch au</w>
Pro ject</w>
D on</w>
unterschei den</w>
s u</w>
pic tu
z onen</w>
M isch
mi x
anzu wenden</w>
lang sam</w>
Protok olls</w>
M all
ver sicher
s .com</w>
Posi tionen</w>
zi one</w>
complic ated</w>
S T</w>
associ ations</w>
Sicherheit spolitik</w>
EN T</w>
prü f
argu ments</w>
Stras bourg</w>
oper ates</w>
-F i</w>
sovereig n
stat e-
er zeugt</w>
shi ft</w>
ga ther
Innov ationen</w>
Chair man</w>
pan el</w>
instal lieren</w>
govern ing</w>
eh lt</w>
bed ro
f ans</w>
broad cast
D ES</w>
z enten</w>
we ar</w>
hä user</w>
S ON
tä glichen</w>
territ ori
p ace</w>
in- depth</w>
in ter</w>
air -
R EL
tradi tions</w>
t licher</w>
ge fallen</w>
ein zur
ari at</w>
natür liche</w>
Geb iet
C S</w>
üs si
politi cally</w>
mati k</w>
ck s
Ver sionen</w>
J acqu
Fre unden</w>
Up date</w>
Telekommunik ations
Puer to</w>
8 .</w>
sti ll
mäß ige</w>
Kop f</w>
CI L</w>
S how</w>
Administr ation</w>
fest zustellen</w>
er hoben</w>
ch tigen</w>
vor liegen</w>
Sm all</w>
ma kro
eng aged</w>
Bal kon</w>
verstär kte</w>
st olz</w>
spann ung</w>
zu gute</w>
promis ed</w>
hal ts</w>
F utter
tie gen</w>
conven tional</w>
geplan te</w>
D im
Competi tion</w>
Ver änderung</w>
Hand lungs
Eras mus</w>
week end</w>
spar tei</w>
gehens weise</w>
erle bt</w>
bo tt
C hile</w>
Ap plause</w>
optim ale</w>
Pol y
mit zu
Bar s</w>
g nü
fahr er</w>
eib .org</w>
Tour ism</w>
Gel der</w>
un fair</w>
kon tak
P aci
wa ve</w>
sec ret</w>
Gerech tigkeit</w>
n ity</w>
ange gebenen</w>
untern eh
aff ord
W ell</w>
Investitions bank</w>
G AP</w>
Ch ampi
In fo
succ eed</w>
it o</w>
besei tigen</w>
Haushaltsp lan</w>
mil es</w>
er ship</w>
R EA
Bal kan</w>
se x</w>
f eu
politi sches</w>
hom es</w>
gradu ally</w>
Proz esse</w>
th ilfe</w>
D oh
Compu ter
ro ot</w>
T AC
Imp ul
verbin det</w>
t ar</w>
rul ing</w>
recht zeitig</w>
con servation</w>
ek tor</w>
ar my</w>
COUN CIL</w>
canc er</w>
europ a
distri but
Vide os</w>
country side</w>
Konfli kte</w>
wiederhol en</w>
in klusive</w>
i i</w>
fir mly</w>
as ti
P UNK
P ier
An dr
signific ance</w>
gr ati
Kompet enzen</w>
Reg ul
Gemä ß</w>
t ons</w>
mis sing</w>
ach ing</w>
Über tragung</w>
norm alen</w>
enst adt</w>
V el
Tschech ische</w>
Ex c
sec tions</w>
pati ent</w>
Thir dly</w>
Br ut
schl üssel
län gerung</w>
Mit entschei
fan den</w>
dies bezü
co s</w>
V alley</w>
cu e</w>
Des k</w>
amen ding</w>
Situ ationen</w>
utt gar
trans fers</w>
hol ds</w>
hand le</w>
geschi chte</w>
ge stellte</w>
ange wendet</w>
Ver stär
Kon zer
Besi des</w>
to ward</w>
ah me</w>
S timmen</w>
re ti
F ast</w>
17 .</w>
Stand ort</w>
EG- Vertrag</w>
religi on</w>
Salz burg</w>
Rück gang</w>
Pro vi
un ited</w>
transi tional</w>
sch e
coun ts</w>
ch ester</w>
Kop enhagen</w>
g y
Me eting</w>
zu zu
acci dent</w>
p oll
bewer ten</w>
appro aches</w>
Unter zeichnung</w>
hund red</w>
9 00</w>
in er
tax pa
D un
D rei
up gra
uneingeschrän kt</w>
ge dacht</w>
es ia</w>
sa h</w>
erleichter t</w>
Ru ß
OEC D</w>
W o</w>
Sch wä
Distri bution</w>
App le</w>
effizi enter</w>
ali tion</w>
Wi -Fi</w>
Be grün
mag ne
collec ted</w>
anti cip
Ma il</w>
Bemerk ung</w>
letz tendlich</w>
integr ate</w>
kontrol liert</w>
Ver abschie
H it
Weiter entwicklung</w>
Tour isten</w>
Stellung nahmen</w>
St uttgar
Amon g</w>
' m</w>
neu n</w>
let ters</w>
fi x
t ings</w>
Kon zentr
cap abilities</w>
H of</w>
B lan
sor ge</w>
po t</w>
Liecht enstein</w>
Chanc eng
spo ke</w>
al ise</w>
Ver lauf</w>
P age</w>
Ge werk
Entsch lossenheit</w>
Ägyp ten</w>
ling u
Wettbewer b
Poli zei
N I</w>
Con c
Be au
S eg
Krank en
spie gelt</w>
produ kten</w>
fun k
ausge zeichnet</w>
Sun day</w>
Ur heber
therap y</w>
the ory</w>
m erg
jet zigen</w>
ck y</w>
EZ B</w>
är er</w>
R AT
Beri chten</w>
ben de</w>
Doku menten</w>
Softwa re
S ä
Qu ad
l unch</w>
author isation</w>
Thurs day</w>
it ar
betri eb
M A</w>
Inkraft treten</w>
ruhi g</w>
r are</w>
process ed</w>
Wes entlichen</w>
At tra
vor gestellt</w>
vor aus</w>
entru ms</w>
prak tischen</w>
man che</w>
ari b
C lin
ph ones</w>
K le
G ang</w>
zei ge</w>
di ction</w>
bewer tet</w>
st at</w>
re formen</w>
origin ally</w>
D EN</w>
supp lied</w>
ausge wählt</w>
Entla stung</w>
d ness</w>
z auber
s q
Drit ten</w>
pil lar</w>
gesund heit
Cor porate</w>
Abhängi gkeit</w>
mar quis</w>
cher maßen</w>
appropri ations</w>
Woh nung</w>
Ro ad</w>
negoti ation</w>
la yer</w>
Islam ic</w>
Can on</w>
ten tion</w>
re publik</w>
ir ischen</w>
ed back</w>
H R
ver tr
concentr ate</w>
be stände</w>
Wettbewer bs</w>
ti er</w>
k örper
cell s</w>
beabsich tigt</w>
üb ung</w>
organis ierten</w>
enth alt</w>
Zah lung</w>
Chanceng leichheit</w>
Agent uren</w>
pun k
fer tig</w>
erh eben</w>
M ü
re servations</w>
finanzi eren</w>
S ier
L ist
K la
C lau
Bar nier</w>
Auffor derung</w>
wa cht</w>
vers ary</w>
arti stic</w>
I cel
B illi
simul tane
pre liminary</w>
p en</w>
Krieg s
D ER
unter suchen</w>
Verabschie dung</w>
PP E-
transfer red</w>
stra ight</w>
fil ter</w>
behaup ten</w>
gre enh
attemp ts</w>
Wider spruch</w>
M .</w>
viel es</w>
sh aushal
hochwer tige</w>
a be
Dire kt
magnific ent</w>
tro u
Re chten</w>
Be ge
voc ational</w>
d ella</w>
alis ierte</w>
err ors</w>
ba res</w>
Li cht
viol ations</w>
du l</w>
be fasst</w>
mechan ismus</w>
be steh
scienti sts</w>
Arbeit nehmern</w>
sp here</w>
müs sten</w>
funda ment
ein gestellt</w>
Ver trages</w>
Hum an
accep tance</w>
Regi ons</w>
Bud gets</w>
pri me</w>
S wi
BM W</w>
did n</w>
Wh o</w>
G ames</w>
f illing</w>
ber gen</w>
recogni zed</w>
lea ves</w>
ie ßen</w>
be wahr
C P
n one</w>
P ur
16 .</w>
ou b
Min im
Gr an</w>
um p</w>
stärk sten</w>
V ater</w>
EU- Ebene</w>
f assungs
Außen -</w>
fem ale</w>
erziel ten</w>
be merk
Ha ar
gel ingt</w>
fisher men</w>
thous and</w>
Langu age</w>
pa th
tra ge
Gen eva</w>
regar dless</w>
bon us</w>
be antworten</w>
S mar
ev al</w>
Ur sachen</w>
IT EMS</w>
regul ated</w>
norm ally</w>
Gl ück
k illed</w>
ges s
kilom et
neg ativen</w>
cent uries</w>
c lin
appro ve</w>
No s</w>
B reit
ver d
tiv itäten</w>
einzel staatlichen</w>
R ab
to x
bevölk erung</w>
Statisti ken</w>
Reg ister</w>
Ori enti
pro te
per man
einzig artigen</w>
Pap ier</w>
Doh a</w>
ô tel</w>
Bild schir
Ash ton</w>
si ed
gere gelt</w>
b y-
reib ungen</w>
li ked</w>
G anz</w>
pro fes
P fle
H under
anwes end</w>
Vermö gens
Schi ff</w>
Fern sehen</w>
uni form</w>
Ci tiz
Ernähr ung</w>
C ir
I ran
proz eß</w>
muse ums</w>
b aus</w>
Dol om
Direc t</w>
teach ers</w>
confir mation</w>
be endet</w>
Spitz en
re me
ehr ten</w>
welt weite</w>
ra dio
a w
sus pen
fa x</w>
am ed</w>
To chter
urg ently</w>
The ater</w>
d y
Mil ch
Jugen dlichen</w>
zu künftigen</w>
willing ness</w>
gener ations</w>
compla ints</w>
bo ts</w>
Volks wirtschaften</w>
gere cht
för m
con stra
kl eines</w>
Re ding</w>
th and
gekenn zeichnet</w>
L ate
ra chten</w>
Ar t
vertei digen</w>
un for
sp a
vil lages</w>
s h</w>
ö l</w>
vide os</w>
S äu
Kon to</w>
k ä
fair ly</w>
an wenden</w>
trav elling</w>
lu g</w>
P fer
destro yed</w>
ar do</w>
PUNK TE</w>
Groß teil</w>
M E</w>
ren owned</w>
kontrol lieren</w>
Spa ß</w>
Liz enz
Prä sent
au to
Bür o</w>
Blo g</w>
lic ens
ben ach
beg ünsti
Schwi mm
teach ing</w>
g ine</w>
bin den</w>
acci dents</w>
Sh ould</w>
Bos nia</w>
Alli anz</w>
ti ll
V ul
Bet riebe</w>
s ung</w>
Kapaz itäten</w>
Be für
te ch</w>
por te</w>
he ading</w>
bur gh</w>
S V</w>
F ut
Ab bau</w>
sen z</w>
ran gigen</w>
Kon f
K ategorien</w>
Aut or
li on</w>
ed -
t less</w>
isl am
Mark en</w>
ue ber</w>
present ing</w>
erkan nt</w>
digit ale</w>
beruf liche</w>
Sch reiben</w>
Re z
Be achtung</w>
ri de</w>
ing s
comb ine</w>
Kontin ent</w>
Be stä
wi reless</w>
W W
An meldung</w>
Ameri cans</w>
manufac ture</w>
ES T
h ase</w>
Tro tzdem</w>
Pak ete</w>
unterst reichen</w>
ann er</w>
Rich ard</w>
C up</w>
rati fication</w>
prof its</w>
Ver schie
Lev el</w>
is lat
gehö rige</w>
uls ory</w>
Ex port
gr ös
en on</w>
par ameters</w>
schritt weise</w>
occ o</w>
medic ines</w>
Paci fic</w>
c as</w>
Gar den</w>
E CO
Her stell
samm eln</w>
in ev
besch l
L ernen</w>
Ger ät</w>
wirtschaf tung</w>
tre ff
s low
er wor
e ase</w>
bei hilfen</w>
Da für</w>
sig ning</w>
geprä gt</w>
fo ssi
consequ ence</w>
wel coming</w>
gele genen</w>
enter ing</w>
zu gs
Samm lung</w>
re action</w>
mit teilen</w>
clean ing</w>
au dit</w>
Geschä ft</w>
S et</w>
Loh n
Dar um</w>
l ers</w>
Bedürf nissen</w>
tri ps</w>
fin dings</w>
dis k</w>
all zu</w>
Fre qu
Ver sorgungs
ar bit
Syri en</w>
Li ve</w>
won der</w>
bedeut enden</w>
an gebracht</w>
Gener ationen</w>
flä chen</w>
Fam ily</w>
l on
entscheiden den</w>
effici ently</w>
Anrei ze</w>
pro xim
min ing</w>
b len</w>
Cat al
endgül tigen</w>
bedau er
affec ting</w>
cris es</w>
consul ting</w>
Mexi ko</w>
A M</w>
tig keits
en ever</w>
acqui red</w>
L ad
Blu e</w>
nor malerweise</w>
italien ische</w>
fin ish</w>
b o</w>
Ma ster</w>
bi gen</w>
T ests</w>
läu fig</w>
EL L
se u
fest en</w>
enh aus</w>
gemeinsam es</w>
foot ball</w>
Cli ent</w>
spar en</w>
contribut ing</w>
ver zerr
direc tory</w>
bew u
beizu tragen</w>
aci o</w>
Ju gosla
Def ence</w>
philosoph y</w>
S har
Re isen</w>
Pal ästinens
Gemein de</w>
wi des
größer es</w>
a sion</w>
verk nü
tie f</w>
Som it</w>
fest legen</w>
dau ert</w>
Lebensmittel sicherheit</w>
speci alist</w>
gar ten</w>
agen ts</w>
individu ell</w>
D reh
Frei handels
198 8</w>
ein stimm
Registri erung</w>
Acc ess</w>
sovereign ty</w>
feder al</w>
er ischen</w>
deep ly</w>
J an</w>
Ham as</w>
Todes strafe</w>
Funda mental</w>
über wachen</w>
St aff</w>
den falls</w>
UN ES
f loo
Jacqu es</w>
9 .</w>
p ure</w>
Ab lehnung</w>
Sin d</w>
vor nehmen</w>
pra g
pak et</w>
democ rati
W ater</w>
T N
Mol da
stam men</w>
instruc tions</w>
Pflan zen
lab or
gefähr det</w>
auf gebaut</w>
S W
is a</w>
Mon day</w>
Entwicklung shilfe</w>
u pper</w>
lux urious</w>
be kommt</w>
Sa chen</w>
lin ien
Her an
pharmac eu
opp elt</w>
kor rigi
erio de</w>
dig nity</w>
design s</w>
bu ch
bo ards</w>
Sch wellen
st y
per mit</w>
gen es</w>
Pro te
K y
sp iele</w>
shor tly</w>
freund lichen</w>
12 .</w>
00 1</w>
wunder schönen</w>
P y
P ul
zeichn ungen</w>
resear chers</w>
qui ries</w>
colo urs</w>
Umstruktur ierung</w>
schutz es</w>
me ets</w>
E E</w>
über winden</w>
rec ru
harm ful</w>
a x</w>
Zeit plan</w>
To ols</w>
Sp i
Mu t</w>
ter ri
as y</w>
Te ams</w>
Ra di
rein force</w>
projek t</w>
pro sec
me ister</w>
ger aten</w>
I .</w>
um zu
bran che</w>
re lief</w>
er ei</w>
einzig ar
ass embly</w>
resul ted</w>
W LAN</w>
well- known</w>
or ama</w>
hop es</w>
ter ing</w>
Män gel</w>
Köni g
Kon g</w>
Met ro
Bewer ber
rel ates</w>
po ols</w>
Ger ade</w>
inclu sive</w>
http:// www.
e at</w>
d lichkeit</w>
Gu ar
r h
g ungen</w>
exten ding</w>
T ieren</w>
S mo
Jahrzeh nten</w>
Bet racht</w>
geschlossen en</w>
exec utive</w>
S C
Passa gi
H ong</w>
thre e-
relev anten</w>
gehand elt</w>
fre ely</w>
blo cks</w>
Inner es</w>
Bos nien</w>
il ater
Tre aties</w>
schedul ed</w>
j i</w>
inf ec
oper ated</w>
il er</w>
chem icals</w>
Be wus
men ade</w>
lich keits
bil d
G as</w>
l ler</w>
jo ining</w>
Mar ok
unver gess
gro ss</w>
Si ehe</w>
real ise</w>
palästinens ischen</w>
gui dance</w>
an schließen</w>
illeg ale</w>
har dly</w>
ernsthaf t</w>
pro min
l us
aufzu bauen</w>
zu künftige</w>
sho t</w>
fin ed</w>
demo kraten</w>
sup posed</w>
gi ge</w>
besch reibung</w>
st y</w>
own ership</w>
essen tially</w>
arbeit ungs
Di plom
mon o
Gl ück</w>
lin ing</w>
L om
Co ur
dam ages</w>
Be steuerung</w>
G D</w>
ini on</w>
EI T</w>
gegensei tigen</w>
gran ting</w>
K L
pre dic
endor se</w>
empfoh len</w>
vi rus</w>
fol low-up</w>
compu ters</w>
10 .</w>
produc es</w>
na cht
di ert</w>
Op position</w>
vor liegende</w>
re mark
mittler weile</w>
hal t
co ol
anzu bieten</w>
Berlin er</w>
Akti en
Pl ace</w>
Anhör ung</w>
.... ..</w>
shi p
produ k
comp ulsory</w>
solidi erung</w>
er re
B in
v is</w>
li qui
sto ck
Colle ge</w>
li ved</w>
Vol kes</w>
R oll
P atten</w>
/ index
pan oram
Treib haus
re affir
ge pf
Ma xim
zo g</w>
in mitten</w>
clari fy</w>
c ei
bed ürf
Stra ft
pre chen</w>
bir th</w>
sh oo
Sier ra</w>
zufrie den
nor men</w>
er freut</w>
boo k
Cap ital</w>
gegenwär tige</w>
Lo unge</w>
Grund sätzen</w>
Cli mate</w>
gehö ri
at z</w>
IN G
Al ters
reli ability</w>
direc tor</w>
des wegen</w>
Feh ler
sym bol</w>
Her kunfts
E mail</w>
Do es</w>
Georgi en</w>
ra ble</w>
genau e</w>
Journ al</w>
tsch ech
har t</w>
Über arbeitung</w>
te stens</w>
cri p
sicht bar</w>
li able</w>
Mor occo</w>
Gu ests</w>
Christ op
ho hes</w>
Alex ander</w>
tri g
klär t</w>
Z war</w>
Ge o
sel ten</w>
satis fy</w>
dr as
x el</w>
graf ischen</w>
cul tures</w>
coast al</w>
Besch luß</w>
represent ing</w>
qualit ativ</w>
Le on
Emis sions
hal tungs
greenh ouse</w>
E ESC</w>
Be urteilung</w>
wi dri
elek tr
und oub
dre am</w>
ten nis</w>
fa ith</w>
ab stimmen</w>
endgül tige</w>
Verteidig ungs
wil li
or i</w>
St ahl
Freit ag</w>
lei dung</w>
Reser ve</w>
Mol do
G ir
Der zeit</w>
kre di
Gef äng
Ver fahrens
1 3.
Ä u
un ig
ski ing</w>
am in</w>
Cast le</w>
k einem</w>
erweit ern</w>
Kolleg in</w>
prepar ations</w>
Gr ünen</w>
Donn er
na vigation</w>
Mo tor</w>
eri al</w>
Holi day</w>
n ers</w>
He ads</w>
G ast</w>
zz i</w>
wides pread</w>
ver sichern</w>
lok aler</w>
ag a</w>
stu dent</w>
Ver längerung</w>
h ence</w>
N av
ima gin
empf angen</w>
oph istic
ch air</w>
T ool</w>
Geschm ack</w>
Alb ania</w>
1. 5</w>
gesell schaftlichen</w>
den tial</w>
Po int</w>
Flug haf
regi erung</w>
Wissenschaft ler</w>
Techni cal</w>
kor rekt</w>
empf än
Man uel</w>
Er zeugung</w>
bi an</w>
Aspek ten</w>
v acc
min er
emis sion</w>
Direc tor
Aca de
198 0</w>
f ed</w>
stre t
every body</w>
ab sch
Produ ktion
mittel fris
cl asses</w>
z te</w>
spre che</w>
ts etzung</w>
spoliti sche</w>
gra m</w>
ag ra
tain er</w>
sit ät</w>
sch em</w>
cr yp
L es</w>
13 .</w>
türk ischen</w>
under lying</w>
Sou thern</w>
F L
ver dienen</w>
be enden</w>
Park platz</w>
statt findet</w>
mittl ere</w>
effek tive</w>
wi en</w>
vier tel</w>
organ ise</w>
ent spannen</w>
so unds</w>
sh el
pre serve</w>
los er</w>
Cap tain</w>
proz esse</w>
grenzüberschreit ende</w>
Wäh len</w>
parlia ment</w>
dar gestellt</w>
Off en
Bet ro
tw o
spei chern</w>
so il</w>
dead line</w>
ti t
beschle uni
Flücht ling
pl atte</w>
exec ution</w>
beg riffen</w>
ök ologischen</w>
geschä ft</w>
techn ischer</w>
edi tion</w>
dur ation</w>
R eh
P las
F Ü
3 50</w>
U p</w>
Ch eck-
sü dlichen</w>
re marks</w>
ge ttable</w>
applic ant</w>
Sch on</w>
Refer enz
Galile o</w>
ge äußert</w>
üh ne</w>
un ab
letz ter</w>
k räf
ap i
ap ers</w>
Kab el
ürz t</w>
sta ke</w>
roo ts</w>
commer ce</w>
Führ er</w>
lig keit</w>
erforder liche</w>
compar able</w>
identi fication</w>
europä isches</w>
Su stain
Proz eß</w>
versch mutzung</w>
sugge sts</w>
ans wer
L ok
Bro wser</w>
ver tritt</w>
t wice</w>
hand els</w>
h ec
ges etz</w>
Su iten</w>
Prä sident
Bl ut
struc tured</w>
si zes</w>
arbeit eten</w>
Instru ments</w>
Grün buch</w>
elec t</w>
consoli dation</w>
Indi an</w>
Gui de</w>
Vermitt lungs
P hän
ther mal</w>
su chte</w>
lös ungen</w>
beg leitet</w>
vi es</w>
produ zieren</w>
V as
Situ ated</w>
ätz en</w>
lear ned</w>
aktivi ert</w>
Schwei zer</w>
schn ellen</w>
person en</w>
eng ines</w>
Re al
Pla ya</w>
qu ellen</w>
at ur
su rely</w>
kle in</w>
Ta x
C el
theti c</w>
mod ules</w>
enor me</w>
aus ger
Ma cht
G lei
sch were</w>
pre mi
A 5-0
kom fort
cons ci
ac adem
Kandi daten</w>
se as</w>
No tes</w>
verletz t</w>
ver sammlung</w>
inv ites</w>
timet able</w>
interess ant</w>
integri erte</w>
K ub
re served</w>
g lo
g are
for war
t ability</w>
lob by</w>
deli cious</w>
201 6</w>
zu kommen</w>
ti les</w>
i chten</w>
foc uses</w>
Men ü</w>
initi ally</w>
K öl
G B
D ritte</w>
den jenigen</w>
N -
z eln</w>
rah mens</w>
dar gelegt</w>
ak s</w>
Cor poration</w>
Re d
Wür de</w>
Eing ang</w>
Defiz it</w>
cul tiv
bet ten</w>
Proz ent
über mitteln</w>
zw öl
be hoben</w>
an forderungen</w>
kn app</w>
gesetz lichen</w>
geeig neten</w>
minister ium</w>
Donner stag</w>
Di kt
offizi elle</w>
fin ds</w>
wor st</w>
propor tion
diplom atic</w>
gui ded</w>
J ack
t esti
läng st</w>
gro wn</w>
deter i
än e</w>
olog ischer</w>
elimin ate</w>
müs ste</w>
Ab lauf</w>
re vi
Geh minuten</w>
zeich nete</w>
quali fications</w>
h an</w>
gesi chert</w>
früh en</w>
stand ardis
ge ziel
charac ters</w>
B ord</w>
angen ommenen</w>
Icel and</w>
reason ed</w>
p g</w>
Dar stellung</w>
ab kommens</w>
Lit er
A g
op ens</w>
glei chermaßen</w>
v illa</w>
Ch an
m s
foc using</w>
stric tly</w>
kontak tieren</w>
den d</w>
Air lines</w>
sa ved</w>
s ophistic
ern t</w>
wes enheit</w>
mu sical</w>
in t-
comp ete</w>
F eld</w>
eri en</w>
bio diversity</w>
bal ances</w>
any where</w>
X P</w>
Pflan zen</w>
Energi equ
func tionality</w>
doub ts</w>
wor thy</w>
l or
geb ühr
v isions</w>
fi x</w>
aut umn</w>
Hä fen</w>
lie ber</w>
beschleuni gen</w>
Ven ice</w>
Ar mee</w>
ob served</w>
ast er</w>
P ir
pos it
Haushal ts</w>
son g</w>
ec ological</w>
gra ben</w>
Erinn erung</w>
unfor gettable</w>
schwer wie
b res</w>
S terne</w>
lei hen</w>
Deb i
ökonom ische</w>
unter breiten</w>
tre e</w>
p p</w>
at ures</w>
Off icial</w>
pro pri
Gewäs ser</w>
D ach
C C</w>
neighbo urs</w>
gewi d
Sim il
stütz en</w>
kap it
c -
Nieder l
order ed</w>
in spi
colle ct</w>
Fac ilities</w>
A ri
g oo
Fu sions
worl d-
thir d-
bel eb
secon dary</w>
wer ks</w>
rit ts</w>
gro sse</w>
Beob ach
sol ar</w>
Phil osoph
occ urred</w>
h i</w>
are l</w>
Liz enz</w>
for tz
ar d-
Wieder herstellung</w>
Deut sch</w>
Be arbeitung</w>
f ährt</w>
c ell</w>
M äd
M S
Last ly</w>
F oo
tra vel
vor über
mechanis men</w>
m its</w>
i Phone</w>
Frau en
Betri eb
su it</w>
Ti p</w>
Nig eria</w>
Intel li
ständi ger</w>
exc ur
be stellen</w>
Kür ze</w>
Govern ance</w>
An kunft</w>
Ver fol
14 .</w>
incorpor ated</w>
Re dner</w>
lich -
U B
P hy
ess -
di en</w>
er a
Wirtschafts raum</w>
St un
Resp ekt</w>
smo oth</w>
health care</w>
en ship</w>
Latein amerika</w>
ge führte</w>
J ean</w>
Hin weise</w>
Aus einander
A par
pro hib
et wa
b ach</w>
refer ring</w>
Soci alist</w>
L ic
sta ats
Parla mente</w>
sus pec
ho tel
gere chte</w>
en em
SA P</w>
rati o</w>
Zeit ung</w>
lo h
juris diction</w>
ish ment</w>
ex changes</w>
Aus grenzung</w>
prec e
inform al</w>
Elek tron
sch m
bro ader</w>
N E</w>
wick lung</w>
un kte</w>
in her
vi able</w>
fort gesetzt</w>
co st-
cho ices</w>
ag o
Kenn zeichnung</w>
Gem ü
Bör se</w>
Fran z</w>
-Sterne- Hotel</w>
Journ alisten</w>
zi a</w>
rene wed</w>
konkre t</w>
wand els</w>
sp häre</w>
o win
Grund lagen</w>
Auf hebung</w>
р о
min i
Geb ühren</w>
transi t</w>
netz e</w>
hospit ality</w>
el det</w>
cap it
Kir k</w>
Ant onio</w>
S L
Kro es</w>
E v
Deb atten</w>
Prä senz</w>
kon zip
Wor k</w>
ur gency</w>
ungs maßnahmen</w>
gä ste</w>
sor ti
Zu g</w>
Luft fahrt
ä le</w>
son gs</w>
he ads</w>
gran ts</w>
Gesch windigkeit</w>
econom ically</w>
ec ks</w>
ima gine</w>
Mittelme er</w>
IT Y</w>
1, 5</w>
reg re
pl astic</w>
al tet</w>
Ban ken
p ush</w>
exp and</w>
Gen ießen</w>
stamm t</w>
re stored</w>
Gemein den</w>
G on
For tsetzung</w>
wei len</w>
bre ach</w>
Satur day</w>
schl üsse</w>
inter medi
deck ung</w>
Sp r
Buch stab
sus p
kön ne</w>
is co</w>
every where</w>
bein halten</w>
anzu passen</w>
undoub tedly</w>
ei ved</w>
Ver heu
TH ER</w>
Ge fan
1 30</w>
är ten</w>
SCH AF
Erwer b</w>
Chil dren</w>
Auf trag
tra cks</w>
man agers</w>
künst ler
c lar
auffor dern</w>
au ern</w>
ö tz
einig t</w>
T ren
Stär ke</w>
Herzeg owin
Er st
te x</w>
Aus flüge</w>
is -
ge fragt</w>
Sever al</w>
D r
mo vie</w>
ke ep
de a
E tik
hy th
an zunehmen</w>
Garanti en</w>
Er st</w>
provin ce</w>
p her
Ver ordnungen</w>
Schul den</w>
me al</w>
ent liche</w>
cle ar
beeinflus sen</w>
aus üben</w>
Bet ten</w>
ut most</w>
Off ic
C ô
vor zunehmen</w>
erör tern</w>
Mar k</w>
Euro stat</w>
ut zutage</w>
feh l</w>
Ein kommen
ver n</w>
partner ships</w>
fol gender</w>
erwer ben</w>
M aga
Be kann
olog isch</w>
lab or</w>
be zahlt</w>
an on</w>
len ding</w>
fi ehlt</w>
al ongside</w>
IW F</w>
I A
vi c</w>
pres sing</w>
ant es</w>
cei ling</w>
Universitä ten</w>
á s</w>
Plan eten</w>
Li by
а н
op en
di alog</w>
bs p</w>
S H
EU- Kommissar</w>
regi onen</w>
amen ities</w>
nis ses</w>
mi et
inspec tion</w>
S ah
Konjunk tur
To tal</w>
Taus ende</w>
Fo ur
herunter laden</w>
anni versary</w>
ab sur
Verheu gen</w>
zeit raum</w>
vor bei</w>
caus ing</w>
Par ameter</w>
D ass</w>
zw an
n ord
eigen er</w>
dien sten</w>
T ages</w>
Rati fizierung</w>
Kompet enz</w>
Finn ish</w>
se e
civi lian</w>
aus ländischen</w>
Köni g</w>
ICH T</w>
E valu
sol ven
hin weg</w>
ent täu
ten den</w>
plan ung</w>
in hal
h l</w>
Mi ß
B ag
Aben dessen</w>
schwe dischen</w>
consider ations</w>
Bur ma</w>
le ger</w>
gewün schten</w>
Stuttgar t</w>
Acade my</w>
Überna chtung</w>
ju gosla
forder te</w>
enh ancing</w>
ach sen</w>
Th ree</w>
w as
veran k
ul f</w>
flu g</w>
Richt linien
phenom enon</w>
kre is</w>
euro zone</w>
cat ch</w>
über aus</w>
them ati
po o
her auszu
Frühstücks buffet</w>
ul en</w>
public ations</w>
T ol
Pe ace</w>
stän digkeit</w>
stitu tion</w>
re volution</w>
geb nisse</w>
alco hol</w>
Pi azza</w>
Ch eck</w>
Ander erseits</w>
forts etzen</w>
dr y</w>
Christ mas</w>
ent deckt</w>
Vorsitz enden</w>
Dynam ik</w>
st ance</w>
individu ally</w>
her es</w>
ad ding</w>
W ed
V IS</w>
H ans</w>
n -
Bereit s</w>
geb äu
an en</w>
gen te</w>
Stre cke</w>
a ders</w>
Co hesion</w>
vor sieht</w>
prin ted</w>
affec ts</w>
Wor king</w>
Oli ven
vil le</w>
up grade</w>
ic y
berech net</w>
be aring</w>
urlau b</w>
tiv als</w>
p ush
nütz lich</w>
haf tet</w>
Zun ahme</w>
Volks gesundheit</w>
Tun isi
kön nt</w>
gerecht fertigt</w>
Innov ations
Ein nahmen</w>
pen sions</w>
Mittelmeer raum</w>
Ö l</w>
swit ch</w>
parti al</w>
emplo yers</w>
dies bezüglich</w>
Sch loss</w>
Binnenmark ts</w>
at om
Fre und
post p
dank bar</w>
co des</w>
klass ischen</w>
horizon tal</w>
Will kommen</w>
Wel thand
ver weisen</w>
r ent
kno w-how</w>
auf bauen</w>
/index _
y ards</w>
hervorra genden</w>
Arbeit geber</w>
leit er</w>
isti sch</w>
fre ight</w>
Wei h
innov ativen</w>
N C
Kre ativ
intelli gent</w>
N az
b i</w>
HT ML</w>
spec trum</w>
Vor be
Dat um</w>
de i</w>
col on
Z erst
Soh n</w>
form ally</w>
Mark tan
F ull</w>
le hr
ger ingen</w>
ver öffentlichen</w>
jugosla w
intern e</w>
confer ences</w>
Vor rang</w>
Mall orca</w>
Entwicklungs zusammenarbeit</w>
n bsp</w>
kontrol len</w>
k urs</w>
com position</w>
M utter</w>
tra -
fas cin
Straß burg</w>
treat ments</w>
sion al</w>
Be zeichnung</w>
under ground</w>
mark tes</w>
integr ity</w>
ft mals</w>
ackno wledge</w>
H oriz
ün d
neut r
exis tiert</w>
de ad</w>
Besch werden</w>
Ann ual</w>
par t-
ig a</w>
Ver mark
To gether</w>
tim ely</w>
e is
St rom</w>
Alb um</w>
at orium</w>
To p</w>
Lei p
rec ords</w>
or ous</w>
hei ßen</w>
Ne eli
Bu dd
Fahr t</w>
Allgem eine</w>
fortz us
bet rieb</w>
koh ol
K lu
fac tory</w>
end ar</w>
dol lar</w>
am in
Er öffnung</w>
popul ations</w>
ch ens</w>
D au
ver zeichnen</w>
Vertre tung</w>
H at</w>
n es</w>
well ness</w>
s son</w>
rec re
ex o
atten d</w>
thi op
subsidi ary</w>
r as</w>
princip al</w>
amaz ing</w>
it ate</w>
e vol
al low
Verstär kung</w>
us alem</w>
ste am</w>
are st</w>
Ther ap
Sp ie
poo rest</w>
dar k</w>
Aus nahmen</w>
where by</w>
lo y
hi elten</w>
fortzus etzen</w>
di an</w>
comm o
anzu zeigen</w>
achie vements</w>
a. m.</w>
N izza</w>
Jose ph</w>
E din
C AR
18 0</w>
ti ll</w>
res que</w>
lic ate</w>
reagi ert</w>
i ka</w>
Gu ine
sh ore</w>
radi k
met ro</w>
Haushal te</w>
f at</w>
besu cht</w>
as set</w>
So wohl</w>
J ur
Constitu tional</w>
Ö ko
gi g</w>
as sozi
Sie mens</w>
setz te</w>
re pair</w>
Sou verän
Ber g</w>
österreich ischen</w>
gro ssen</w>
dig te</w>
S E
Kommissionsprä sident</w>
az z</w>
Por tal</w>
Or te</w>
un entgel
s essions</w>
r t</w>
mach in
dec lar
C ur
wei ch
it é</w>
Katastro phen
sau ber</w>
An hän
aus ländische</w>
Cook ies</w>
A PP
enn is</w>
Sü do
stru ktion</w>
ru pt</w>
gener ell</w>
H eili
spä testens</w>
dis cher</w>
li ere</w>
g ast
ar men</w>
A ch
gi pf
bel ong</w>
S K
Mo sco
EW SA</w>
under taking</w>
j ac
medic ine</w>
con vention</w>
Wochen ende</w>
Ges chen
Thir d</w>
Bau m
к о
ri ding</w>
negoti ated</w>
v re</w>
bel ong
Wer den</w>
D F</w>
under take</w>
mis s</w>
rep utation</w>
emp fiehlt</w>
b at</w>
Sch ätz
Custom er</w>
o le
k ia</w>
Eff ek
Benutz ung</w>
198 7</w>
u ph
Umwelt fragen</w>
C ab
zeich neten</w>
it ly</w>
comp act</w>
Som e
Con ver
Ti bet</w>
Sie d
Zw ischen</w>
ver breit
d ently</w>
sto res</w>
bei behalten</w>
n ings</w>
gegensei tige</w>
d ing
S IS</w>
M eines</w>
Bes itz</w>
roman tic</w>
H us
äl teren</w>
sub sequently</w>
ar re
S ri</w>
G or
umini um</w>
short- term</w>
Muse en</w>
Hei zung</w>
An dal
Con nec
woh n
strug gle</w>
ge treten</w>
depen dence</w>
W EI
Koh är
install ations</w>
Erfol ge</w>
Autob ahn</w>
vari ed</w>
v ar</w>
ad ds</w>
EG F</w>
be hält</w>
Kam pf
ü mer</w>
ov ina</w>
medizin ische</w>
E c
zu gestimmt</w>
sup er</w>
pos ure</w>
li ger</w>
erwäh nen</w>
effizi enten</w>
V ista</w>
virtu ally</w>
sm art</w>
hon our</w>
Flä che</w>
Beisp iel
le ge</w>
S C</w>
son sten</w>
m ere</w>
incre di
fa ils</w>
be wahren</w>
Mit tag
Er satz
App lik
é n
elec toral</w>
chap ter</w>
certi fication</w>
Verzeichn is</w>
Sto ck</w>
zerstör t</w>
su res</w>
alis ing</w>
Län ge</w>
offizi ell</w>
K äufer</w>
wal d</w>
comm it</w>
campaign s</w>
auf nahme</w>
disp utes</w>
K ern</w>
A ma
initi ated</w>
hoff entlich</w>
angekün digt</w>
Medi ka
K ühl
EUROPÄISCH EN</w>
dig keits
tatsäch lichen</w>
ge wählten</w>
ä ter</w>
zentr aler</w>
ven tive</w>
y ard</w>
gu es</w>
ar ma
Vis a</w>
un ilater
o live</w>
Gesetz geb
pret ty</w>
Deutsch lands</w>
e o</w>
communic ate</w>
Feh l
Ent spannung</w>
An na</w>
maga zine</w>
la di
Süd afrika</w>
E th
ä ssi
bed ded</w>
Ministerprä sident</w>
е р
v i</w>
in adequate</w>
emis sionen</w>
bro w
Schü ler</w>
Partner schaften</w>
P har
Min er
Marok ko</w>
Klima wandels</w>
sonsti gen</w>
pri ze</w>
en ne</w>
accord ingly</w>
So w
S po
Masch ine</w>
Eur or
Di agno
ul timate</w>
Lt d</w>
J ung
CH F</w>
li cht
ant räge</w>
er wiesen</w>
ar ische</w>
2 nd</w>
w ash
er end</w>
be trag</w>
al i</w>
Loc ation</w>
be ef</w>
zer ti
us age</w>
h et</w>
g ingen</w>
bewer tung</w>
T al</w>
substanti ally</w>
gi a</w>
form ats</w>
ex zell
nä her
geh ei
ativ ity</w>
Stell en
P ack</w>
Rechnung shof</w>
Leb anon</w>
Gre en
ver geben</w>
Kenntn isse</w>
Gipfel treffen</w>
lan ger</w>
en ergie</w>
Mon ti</w>
B and
in t
Ruß land</w>
Kon gres
Ameri kaner</w>
bl ed</w>
bar om
Con tent</w>
r is</w>
amp s</w>
Spiel en</w>
Moldo va</w>
Fil me</w>
ous ness</w>
a o</w>
Herzegowin a</w>
ch i</w>
Leit er</w>
D ör
198 6</w>
Reservi erung</w>
Mark en
Je doch</w>
zu gelassen</w>
consu lt</w>
dis zipl
O K</w>
sonsti ge</w>
Vertri eb</w>
M ir</w>
progres sive</w>
dür ften</w>
T or</w>
th ou
198 5</w>
span ische</w>
komple tte</w>
beg ins</w>
b eln</w>
Stän digen</w>
erk enn
ec o
brie fly</w>
Religi on</w>
An träge</w>
su ms</w>
s me
min or</w>
kon figur
mark ing</w>
industri ellen</w>
im men
gan z
b onds</w>
agent ur</w>
K ä
Gesetz es
r an</w>
se ats</w>
g lich
Ent schä
D R</w>
begeg nen</w>
Pro p
PRO C
L eh
Infra struktur
Herzeg ovina</w>
op ho
electri cal</w>
Umweltsch utz
Grupp en
re ci
pl ates</w>
be danken</w>
accom pl
pursu ed</w>
pol nischen</w>
found ations</w>
er zeugen</w>
combin es</w>
W ould</w>
Scha den
wh er
fun ktion</w>
Flor enz</w>
C ru
st on</w>
re tain</w>
Weiß buch</w>
Re chen
C ent
Bo ur
beschle unig
Produk tivität</w>
P ed
Biblioth ek</w>
wel le</w>
ei le</w>
günsti gen</w>
fair en</w>
el and</w>
Schön heit</w>
Li ban
Aut os</w>
Aus rüstung</w>
über lassen</w>
rec ording</w>
gebilli gt</w>
in ely</w>
St rei
hil l</w>
Tschech ischen</w>
C A</w>
t ant</w>
schl uss
ju dge</w>
Cas a</w>
Ha iti</w>
tä tigen</w>
er öffnen</w>
at i</w>
Objec tive</w>
tern s</w>
Steu er</w>
Er neu
relation ships</w>
geb lieben</w>
3 00
Tra in
An sprüche</w>
Alb anien</w>
W erten</w>
Sour ce</w>
Oper a</w>
Min ute</w>
Elec tron
reduc tions</w>
m äh
environ mentally</w>
enn ess</w>
consul tations</w>
j ury</w>
wech seln</w>
sp ite</w>
po sts</w>
do w
30 .</w>
ges tiegen</w>
arran gement</w>
scri pt</w>
oblig ator
jun ction</w>
for cing</w>
del ays</w>
I l</w>
öst lichen</w>
with draw
lic a</w>
gül tig</w>
chin esische</w>
chec ked</w>
gir ls</w>
se uropä
mäß igkeit</w>
im peri
E vents</w>
ak u
verwen deten</w>
sp f
com posed</w>
B ö
zw ingen</w>
for th</w>
flo ors</w>
W and
Pa y
zügi g</w>
no tic
m eter</w>
in sufficient</w>
größ ter</w>
begrün det</w>
Vor stellungen</w>
Sp ring</w>
Hab en</w>
Eu ch</w>
gewid met</w>
fall ing</w>
Cub a</w>
str asse</w>
fro h</w>
Pla y
Finanz mittel</w>
C EO</w>
tt i</w>
lä dt</w>
le benden</w>
T amp
R y
Kohär enz</w>
Ein la
verletz ungen</w>
stat ing</w>
schwieri ge</w>
Kredit karte</w>
Übri gen</w>
teil te</w>
gewer b
fe wer</w>
bet riebe</w>
S OL
Dan ach</w>
ausreich ende</w>
D ring
B e</w>
Absch luß</w>
spä teren</w>
repe at
igh t
civi li
Mal ay
L IF
trau m
sophistic ated</w>
ro ut
en .htm</w>
ch ampi
Vizeprä sidentin</w>
Sti ftung</w>
N RO</w>
Hol z</w>
succ eeded</w>
quo ta</w>
spar teien</w>
schrift liche</w>
günsti ge</w>
Betru gs
Sk y
Zul assung</w>
U M</w>
Mäd chen</w>
General dire
Aus übung</w>
ähn lichen</w>
remo val</w>
perf ekte</w>
geb ühren</w>
E .
credi ble</w>
cam p</w>
Stra h
zwöl f</w>
residen ts</w>
pu rely</w>
her bei
B om
än der</w>
vor liegt</w>
rank ungen</w>
U sing</w>
Anwen der</w>
entreprene ur
en er
k es
gegeb enen</w>
Inter governmental</w>
1 10</w>
vermie den</w>
thor ough</w>
sich ert</w>
na il</w>
e x</w>
der ten</w>
Betre uung</w>
unter bro
soli de</w>
c ts</w>
L eben
Ab teilung</w>
unmittel barer</w>
publ ish</w>
recogni ze</w>
pi ed</w>
investig ations</w>
tik a</w>
mu g
besch ließen</w>
tr at</w>
sha dow</w>
im pe
ex posed</w>
d ying</w>
Fri endly</w>
Edin burgh</w>
Cont act</w>
A .
viol ation</w>
lo gical</w>
frei er</w>
fin dung</w>
D .</w>
techn ologische</w>
sozi al
sig ni
e fully</w>
co tt
serv ative</w>
н о
w ör
gel ung</w>
Citiz ens</w>
los ing</w>
inspi red</w>
ein sei
Bas el</w>
pel ine</w>
komp ati
go tten</w>
Schluß folgerungen</w>
4 30
poli s</w>
offen bar</w>
ha i</w>
ab end</w>
Debi an-
stä tten</w>
prison ers</w>
ol i</w>
comp res
ver trä
sel ber</w>
ben ch
sur prise</w>
orient ation</w>
mand atory</w>
h ast</w>
ach ed</w>
á n
p ä
be er</w>
Wi k
Ru bri
ster ben</w>
lie b</w>
The men
N ap
J on
Hau t</w>
so genannte</w>
T ou
Li b
E F</w>
form ing</w>
erstre ckt</w>
der og
Stabil isierungs
Re par
R E</w>
s ä
mis take</w>
ex act</w>
erneuer baren</w>
be un
post al</w>
k ür
Re vision</w>
Her z</w>
tex tile</w>
it a
So l</w>
P sy
Haupt bahnhof</w>
L aut</w>
k lin
Zu gangs</w>
kap ital</w>
ec ts</w>
p it
ordnungs gemäß</w>
Jer usalem</w>
Bet ra
speci alists</w>
sko sten</w>
de fe
angebo te</w>
V inc
im ported</w>
co ol</w>
Wi kit
vo s</w>
kom fortable</w>
besonder es</w>
Austr alien</w>
vi eren</w>
over looking</w>
in spir
He ad</w>
F an
so eben</w>
non- smoking</w>
gi k</w>
Gui delines</w>
nar row</w>
gra fi
A l</w>
vol les</w>
sprin zip</w>
kö mm
Schen gen-
Pal ette</w>
ver li
ra id</w>
pictu resque</w>
Mon tag</w>
v ise</w>
ssi er</w>
guarante eing</w>
Kon vent</w>
Coun try</w>
ge liefert</w>
construc ted</w>
at e-
mor t
N ero</w>
sch mer
cre w</w>
Schutz es</w>
Er leichter
hy po
b are
Wikit ra
Nach druck</w>
um ul
mi le</w>
bro ken</w>
be fin
S zen
Produc t</w>
Ein en</w>
Democ ratic</w>
Begrün dung</w>
kilomet res</w>
journ alists</w>
ing redi
Trans fer</w>
Luft verkehrs
zah ler</w>
le ute</w>
defic its</w>
L ine</w>
Infra strukturen</w>
H z</w>
Gesi cht
stan zen</w>
ologi en</w>
hom o
B A
en dung</w>
chn ungen</w>
be an</w>
Entfer nung</w>
stau sch
conveni ence</w>
CD s</w>
Arznei mittel</w>
u rement</w>
simpli fication</w>
N on
wachsen de</w>
radi cal</w>
legitim acy</w>
gel esen</w>
Dar fur</w>
th ri
gem essen</w>
UN O</w>
Gol den</w>
con version</w>
Profession al</w>
sup erior</w>
man chen</w>
gr ünen</w>
bedro ht</w>
W -
Pri ze</w>
Bü rokrati
op pose</w>
d res
Inn enstadt</w>
Get rei
li fer
fas zin
T ür</w>
Pal acio</w>
weiter zu
pass ing</w>
ell i</w>
Kaff ee</w>
un employed</w>
stechni k</w>
list ings</w>
Beam ten</w>
wür dig</w>
repe ated</w>
eit ern</w>
at -
Fl uss</w>
Europ a
B A</w>
tax i</w>
explan ation</w>
Rele ase</w>
st ories</w>
le i</w>
beru hen</w>
Val encia</w>
Pass wort</w>
Entschei d
än ge</w>
with draw</w>
se gment</w>
re kte</w>
over -
grenz übergreif
la im
Br and
si e
gegen über
cas ino</w>
be gun</w>
Wäh ler</w>
Li br
Hum anit
Gra fi
C anc
nied rigen</w>
assess ed</w>
US S
So und</w>
Sec tion</w>
il ity</w>
enlar ged</w>
auf geführt</w>
Zu cker
29 5</w>
hol der</w>
heb t</w>
UNES CO</w>
For m
ch rist
aktu alisiert</w>
H ein
stöß t</w>
deut sch
com po
In c</w>
An dro
panoram ic</w>
ker nel</w>
ingredi ents</w>
ge statten</w>
erst es</w>
Industri al</w>
Ex cell
z ones</w>
N or</w>
Lebens mitteln</w>
Glau ben</w>
jüng ste</w>
ex trac
Dritt staaten</w>
o x
nieder ländischen</w>
hi king</w>
aus es</w>
Neeli e</w>
Fre und</w>
respec tively</w>
o ftmals</w>
dr yer</w>
de voted</w>
bo und
R enn
Argu mente</w>
A part</w>
über wach
territ ories</w>
eventu ell</w>
d rit
Zü rich</w>
Augen blick</w>
woh nern</w>
ou ts</w>
hal ts
br y
Yugosla v</w>
Ha ve</w>
stu ff</w>
rele ases</w>
sc rut
m outh</w>
f ell</w>
e -</w>
ass urance</w>
Kapaz ität</w>
v able</w>
tex tual</w>
ld n</w>
institu te</w>
geschi ckt</w>
Str and
Stabilitäts -</w>
Sat z</w>
S w
Europ ar
tro ops</w>
b lau
Park plätze</w>
Föder ation</w>
wäch st</w>
spe e
Masch inen
K ie
sen dung</w>
kon ta
condi tioned</w>
Unterneh mer
Fischerei politik</w>
maxim al</w>
hy gi
alis tische</w>
Indi katoren</w>
spezi alisiert</w>
n ative</w>
b la
k riterien</w>
üb lichen</w>
fir st-
Pf lichten</w>
Minister rat</w>
H- 0
Ein satz
un necessary</w>
ordnungs gemä
Wil d
C ra
voraus sichtlich</w>
sh and
S Y
st ur
heraus ra
Dro gen</w>
Det ail</w>
mar gin
gl ing</w>
gek ehrt</w>
ein geräumt</w>
conc ert</w>
Spe isen</w>
Russ lands</w>
sle ep</w>
Um stände</w>
Sch wan
No kia</w>
Mo sk
Tie f
ob o
bo ats</w>
Pen sion</w>
C ar</w>
evi dent</w>
vic tory</w>
t es
syn chron
mer k</w>
hibi tions</w>
Milli on</w>
J .</w>
z weiter</w>
v ary</w>
tari ff</w>
jähr liche</w>
Lissabon- Strategie</w>
Kno w-how</w>
hand el
über wacht</w>
war tet</w>
lo ading</w>
Zerti fik
Proz ess
Arbeits weise</w>
. j
zus agen</w>
taxpa yers</w>
i Po
thresh old</w>
pic k</w>
ill as</w>
symb ol
p a</w>
Ein leitung</w>
ut ung</w>
bath rooms</w>
s anit
her stellen</w>
frequ ency</w>
amen d</w>
Por to</w>
Hier zu</w>
statisti cal</w>
ati sierung</w>
Resi dence</w>
Man age
respec ts</w>
er arbeitet</w>
ru m
promo ted</w>
ol dest</w>
Haf en
Arbeits gruppe</w>
leit ungen</w>
Spek trum</w>
Souverän ität</w>
versch affen</w>
mittel -</w>
verwen de</w>
verabschie den</w>
b right</w>
Res ult
Fest stellung</w>
unterschie dlicher</w>
stun ning</w>
men tierung</w>
kl asse</w>
Ch ief</w>
lan gem</w>
ma x</w>
her e
fe et</w>
enz a</w>
KO M</w>
Hä user</w>
T ruppen</w>
Demon str
pl ötz
ei ler</w>
deut liche</w>
erweit erten</w>
Sch ne
spo ten
new sletter</w>
equ ity</w>
chter n</w>
Well ness</w>
H ek
Energiequ ellen</w>
D ingen</w>
Berichterstat ters</w>
ver teilung</w>
ver e</w>
ha ir
aktu ell</w>
R äume</w>
Joh ann
b aut</w>
gering er</w>
Sp itze</w>
Ferienwoh nung</w>
zei gte</w>
typ ischen</w>
poten tially</w>
pos s
Vorsitz ender</w>
Vorder grund</w>
Ma in
negoti ate</w>
hi dden</w>
zunehmen de</w>
ro t
a res</w>
Spa zier
Konf lik
poten ti
cover age</w>
K arel</w>
techn ologischen</w>
h t
enor men</w>
vis its</w>
therap eu
herr lichen</w>
bal gs</w>
Verk aufs
Außen minister</w>
statt gefunden</w>
sol di
nö tigen</w>
hau shal
coordin ate</w>
ci ally</w>
Mi et
g ungs
Musli m</w>
L or
noti fication</w>
lin ken</w>
aus gehen</w>
verur sachen</w>
feh len</w>
Wider stand</w>
Sp ani
op enness</w>
autom otive</w>
ausge arbeitet</w>
Ein er</w>
w ahr</w>
kümm ern</w>
chem ische</w>
Hand lungen</w>
Gü ter
ti gem</w>
liefer ung</w>
fle isch</w>
bet ru
19 th</w>
man ual</w>
differ enti
wirk liche</w>
h un
bo ar
dist ur
beeinträch tigen</w>
ver breitet</w>
B ed</w>
erst klassi
V O
Ho heits
yst eme</w>
er staun
dig ungen</w>
as signed</w>
Unterneh mer</w>
H U</w>
veröffent lichte</w>
tu s</w>
ten den
contrac tual</w>
Wissen s
Veranstal tungs
Sym bol</w>
Jugosla wien</w>
Do cu
me als</w>
fif th</w>
co al</w>
belg ischen</w>
inf o</w>
erneuer bare</w>
Rahmen s</w>
An reg
ordin ation</w>
gen auer</w>
er teilen</w>
Mes se
MEN T</w>
K art
verpflich ten</w>
p as</w>
L esen</w>
Br ü
An y
wir ft</w>
ro ll</w>
D üssel
ung laub
Zustän digkeiten</w>
geis tigen</w>
and in
L A</w>
pr ison</w>
Si cht
Nachbar schaft
Ko re
exp anded</w>
druck s
verbin dungen</w>
mit ting</w>
ins ist</w>
i ds</w>
ass em
Pie balgs</w>
In clu
Ziel setzungen</w>
un certainty</w>
sen ior</w>
proble m
mit geteilt</w>
kosten lose</w>
COM M
so for
ra sche</w>
er mitteln</w>
25 .</w>
tra ined</w>
Men gen</w>
altern atives</w>
Informations -</w>
Auf lösung</w>
vie wing</w>
du p
Comm erce</w>
Ch ange</w>
B av
Ab fälle</w>
sti ck</w>
haf ter</w>
gerech net</w>
wä sche</w>
war t</w>
stan des</w>
exp ense</w>
emphas ised</w>
O THER</w>
F rü
kur se</w>
regel ungen</w>
pre mium</w>
Som alia</w>
Le ague</w>
zunehmen den</w>
toler ance</w>
Ver stöß
S ul
Ober fläche</w>
transl ated</w>
sur plus</w>
hol e</w>
ger inge</w>
ausge stellt</w>
ari ties</w>
ans ässi
Ernähr ungs
uni or</w>
system atic</w>
sh uttle</w>
respec ting</w>
graf ie</w>
con tra
unentgel tlich</w>
mer ger</w>
durch geführten</w>
Vor gehensweise</w>
Ver mei
Schn ell
Lebens qualität</w>
Bl ack
ang le</w>
2. 5</w>
nutz t</w>
gel s</w>
der -
P M</w>
Bestä tigung</w>
B ah
sch läge</w>
on ie</w>
j ing</w>
fo to
Sol ana</w>
M ei
Flor ence</w>
mehr fach</w>
los es</w>
fa ire</w>
beauftrag te</w>
en c
K lo
unterst reicht</w>
restric tive</w>
mi xed</w>
b uses</w>
ko rea</w>
hei mischen</w>
Sp ei
z ungen</w>
Sa ison</w>
ri ebenen</w>
defin ing</w>
Konsult ationen</w>
Fle isch</w>
xi de</w>
é r
unter breitet</w>
cer em
an zeigen</w>
kli mati
Konfli kt
Al le
ver stoßen</w>
län ger
klär en</w>
klein ere</w>
belie ved</w>
Wachst ums</w>
D H
fo ster</w>
Bu ff
Belast ung</w>
po t
afford able</w>
um gehend</w>
sa d</w>
hochwer tigen</w>
Sozial partner</w>
K eine</w>
F abri
vi era</w>
mm a</w>
ameri kan
plan en</w>
Wei l</w>
ST R
Expl orer</w>
Ein schätzung</w>
Betru g</w>
je denfalls</w>
F I</w>
An sprech
verhältn is</w>
str and</w>
ref used</w>
be wirken</w>
Ira q
Nor d</w>
Hil f
remark able</w>
k unden</w>
befürwor tet</w>
Ber ge</w>
re tar
ra ces</w>
gesu cht</w>
Tab elle</w>
Sonn tag</w>
gar age</w>
fe a
modernis ation</w>
jah res
envis aged</w>
Sad dam</w>
Ri chter</w>
Pan oram
Mark et
Er arbeitung</w>
speci alized</w>
A z
t ten
pl ur
men ge</w>
ad ise</w>
ier tes</w>
T us
9 0
mer kt</w>
iss ance</w>
intensi v</w>
collap se</w>
Welt wirtschaft</w>
G EN
gri ff
er fasst</w>
O z
beri chte</w>
G RA
Assozi ations
repeat edly</w>
ommen e</w>
li ck
zweit ens</w>
zw eck
re si
ad ays</w>
acht ungs
Fahr er</w>
fo x</w>
der selben</w>
len ken</w>
evalu ate</w>
b ought</w>
S ab
ba y</w>
ab gegeben</w>
Vene zu
Urlau bs
Arbeitsk räfte</w>
fail ing</w>
Su ites</w>
R ES
se emed</w>
land wirtschaftliche</w>
l len</w>
ke ys</w>
Mar co</w>
Leip zig</w>
G ül
Beihil fe
Altern ativen</w>
Zusammen setzung</w>
wech s
h o</w>
far ms</w>
Dig ital
clar ity</w>
Ein es</w>
D I</w>
Bü cher</w>
studi ed</w>
Vereinig tes</w>
pun kten</w>
manufac tured</w>
compati bility</w>
beri chterstat
Comm unities</w>
pl as
orienti erte</w>
o ve</w>
bes chä
Aktionsp lans</w>
wei chen</w>
chair man</w>
simpli fy</w>
graf ische</w>
auf gestellt</w>
Tradi tionen</w>
MO s</w>
verbesser te</w>
ver steht</w>
refer ences</w>
Vor gaben</w>
Benutz er
surpr ised</w>
sit zen</w>
pers ist
ad min
Besu chen</w>
pen alties</w>
men ting</w>
aus ser
alis ierungs
Yugosla via</w>
ö ch
zur zeit</w>
um es</w>
orienti erten</w>
e a</w>
cul p
sti pul
reve aled</w>
Olymp ic</w>
r us
beträcht liche</w>
angen ehmen</w>
Perform ance</w>
spä t</w>
safe guar
li tion</w>
enti ty</w>
defin ieren</w>
Kohä sions
GV O</w>
win d
reich hal
ho p</w>
T elec
Parlia mentary</w>
under lined</w>
ater ing</w>
N er
Legisl ativ
prospec t</w>
ar ts</w>
ak ing</w>
Treibhaus gas
Sch le
Gro ßen</w>
G A
ver bindung</w>
ausge deh
Her kunft</w>
Ass ist
au ßen
ag nen</w>
oper ation
mi ß
m elt</w>
agre es</w>
sch wä
moment an</w>
Dres den</w>
hü tung</w>
h ung</w>
Te am
Aus legung</w>
si x
Ter ms</w>
Beru f
ni ght
ex posure</w>
beri chtet</w>
Durch schnitt</w>
Ziel s</w>
l are</w>
en tive</w>
ant i</w>
T V
Inter vention</w>
gu il
L ü
angeneh m</w>
wid men</w>
cro ps</w>
W ör
Tra vel</w>
Engine ering</w>
Apparte ments</w>
endor sed</w>
Nor dic</w>
di tions</w>
develop ers</w>
zer o</w>
sta ying</w>
no -
beeinträch tigt</w>
audi ence</w>
vari able</w>
machin ery</w>
gel d</w>
consist ency</w>
certi fied</w>
sol ved</w>
re aler</w>
enjo ys</w>
dra matic</w>
beru fen</w>
1 40</w>
öh nen</w>
rati fied</w>
b lan
ah e</w>
LI CH
6 4
s now</w>
recy cling</w>
Tex til
Ro ck</w>
H AL
Durch führungs
einstimm ig</w>
aus stattung</w>
A y
spor t
keines wegs</w>
ir on</w>
ag u
In spek
E I</w>
а л
vern ehmen</w>
dah in</w>
per mission</w>
f at
archit ek
Z weiten</w>
J ar
Au dio
Z in
In genie
F F
viol ent</w>
occup ation</w>
ehr en</w>
Wahr schein
E t
Aus sage</w>
red und
di eren</w>
Privat sphäre</w>
Ex port</w>
Kon vention</w>
Früh jahr</w>
sta yed</w>
Hän dler</w>
zusammenzu arbeiten</w>
sustain ed</w>
an sprechen</w>
am p</w>
Schi cks
Doku mentation</w>
diesel ben</w>
an sehen</w>
ver pfli
Klar heit</w>
sch reck
quanti ty</w>
ad res
Krieg es</w>
Ch ic
um gehen</w>
sig nature</w>
k as
cr yst
rupp e</w>
necess ity</w>
descri be</w>
C P</w>
verti e
versch le
g on</w>
Sci enti
sp len
sec onds</w>
rä gt</w>
ga stronom
Tex t
Mo dule</w>
p ru
ig no
clas sical</w>
ac o</w>
Sam sung</w>
Prof .</w>
Ost europa</w>
Kar ri
K au
trav ellers</w>
theat re</w>
bü rokrati
mut lich</w>
g or
el f</w>
profession elle</w>
pres ti
hel l</w>
Verfol gung</w>
Haf t
zufrieden stell
dest o</w>
char akter
bene ficial</w>
St ri
Sch atten
O x
C ou
B ut
is chen
St ro
S tern
Or ten</w>
Mosco w</w>
Frem d
stimul ate</w>
com ings</w>
M w
th umb
Wed n
Tamp ere</w>
NE W</w>
Kommunik ation
Exist enz</w>
Bürger beauftragten</w>
col ors</w>
Sa int-
Re gar
Phili ppe</w>
war ran
teil ten</w>
promis ing</w>
S. A.</w>
ent spre
comp rises</w>
boo ked</w>
War craft</w>
N eigh
Gewin ne</w>
bu ying</w>
Par a
Molda u</w>
confi dent</w>
Vorbereit ungen</w>
techni que</w>
ob serve</w>
metho de</w>
g reg
co ck
withdraw al</w>
g ate</w>
Liban on</w>
I ES</w>
Flug gesellschaften</w>
F is
inc entive</w>
Elek tri
t ut
Wachstum sp
4- star</w>
tackl ing</w>
Tr end</w>
Saf e</w>
Qu ell
Beschäftig ten</w>
spiel er</w>
Ver gnü
Pier re</w>
Gepä ck
20 th</w>
[...]
